{
  "vocab": {
    "[PAD]": 0,
    "[UNK]": 1,
    "[CLS]": 2,
    "[SEP]": 3,
    "[MASK]": 4,
    "!": 5,
    "\"": 6,
    "#": 7,
    "$": 8,
    "%": 9,
    "&": 10,
    "'": 11,
    "(": 12,
    ")": 13,
    "*": 14,
    "+": 15,
    ",": 16,
    "-": 17,
    ".": 18,
    "/": 19,
    "0": 20,
    "1": 21,
    "2": 22,
    "3": 23,
    "4": 24,
    "5": 25,
    "6": 26,
    "7": 27,
    "8": 28,
    "9": 29,
    ":": 30,
    ";": 31,
    "<": 32,
    "</w>": 33,
    "=": 34,
    ">": 35,
    "?": 36,
    "@": 37,
    "[": 38,
    "\\": 39,
    "]": 40,
    "`": 41,
    "a": 42,
    "b": 43,
    "c": 44,
    "d": 45,
    "e": 46,
    "f": 47,
    "g": 48,
    "h": 49,
    "i": 50,
    "j": 51,
    "k": 52,
    "l": 53,
    "m": 54,
    "n": 55,
    "o": 56,
    "p": 57,
    "q": 58,
    "r": 59,
    "s": 60,
    "t": 61,
    "u": 62,
    "v": 63,
    "w": 64,
    "x": 65,
    "y": 66,
    "z": 67,
    "|": 68,
    "": 69,
    "¡": 70,
    "£": 71,
    "¨": 72,
    "«": 73,
    "­": 74,
    "°": 75,
    "»": 76,
    "¿": 77,
    "à": 78,
    "á": 79,
    "ä": 80,
    "é": 81,
    "í": 82,
    "ï": 83,
    "ñ": 84,
    "ò": 85,
    "ó": 86,
    "ö": 87,
    "ú": 88,
    "ü": 89,
    "​": 90,
    "‎": 91,
    "–": 92,
    "—": 93,
    "―": 94,
    "‘": 95,
    "’": 96,
    "“": 97,
    "”": 98,
    "…": 99,
    "‪": 100,
    "‬": 101,
    "″": 102,
    "€": 103,
    "₹": 104,
    "™": 105,
    "☑": 106,
    "️": 107,
    "﻿": 108,
    "🎁": 109,
    "🐲": 110,
    "👁": 111,
    "👇": 112,
    "💌": 113,
    "📌": 114,
    "🔴": 115,
    "😣": 116,
    "😳": 117,
    "e</w>": 118,
    "s</w>": 119,
    "n</w>": 120,
    "th": 121,
    "t</w>": 122,
    "er": 123,
    "d</w>": 124,
    ".</w>": 125,
    "in": 126,
    "a</w>": 127,
    "y</w>": 128,
    "or": 129,
    "ar": 130,
    "o</w>": 131,
    "en": 132,
    "an": 133,
    "the</w>": 134,
    "re": 135,
    "al": 136,
    "at": 137,
    "on": 138,
    "ed</w>": 139,
    ",</w>": 140,
    "on</w>": 141,
    "st": 142,
    "ou": 143,
    "ic": 144,
    "in</w>": 145,
    "g</w>": 146,
    "f</w>": 147,
    "es</w>": 148,
    "il": 149,
    "ing</w>": 150,
    "er</w>": 151,
    "to</w>": 152,
    "\"</w>": 153,
    "of</w>": 154,
    "as</w>": 155,
    "an</w>": 156,
    "ro": 157,
    "ac": 158,
    "am": 159,
    "it": 160,
    "l</w>": 161,
    "or</w>": 162,
    "ent</w>": 163,
    "ion</w>": 164,
    "al</w>": 165,
    "sa": 166,
    "de": 167,
    "and</w>": 168,
    "is</w>": 169,
    "en</w>": 170,
    "st</w>": 171,
    "at</w>": 172,
    "id": 173,
    "om": 174,
    "un": 175,
    "0</w>": 176,
    "ec": 177,
    "ch": 178,
    "-</w>": 179,
    "is": 180,
    "im": 181,
    "ve</w>": 182,
    "ol": 183,
    "tr": 184,
    "lo": 185,
    "ir": 186,
    "ys</w>": 187,
    "as": 188,
    "ad": 189,
    "le": 190,
    "th</w>": 191,
    "k</w>": 192,
    "for</w>": 193,
    "ig": 194,
    "ur": 195,
    "are</w>": 196,
    "el": 197,
    "says</w>": 198,
    "ob": 199,
    "ill": 200,
    "res": 201,
    "ate</w>": 202,
    "ver": 203,
    "ent": 204,
    "that</w>": 205,
    "p</w>": 206,
    "ha": 207,
    "m</w>": 208,
    "w</w>": 209,
    "wh": 210,
    "con": 211,
    "us": 212,
    "per": 213,
    "ear": 214,
    "pl": 215,
    "ot": 216,
    "ag": 217,
    "'</w>": 218,
    "ly</w>": 219,
    "pro": 220,
    "ion": 221,
    "ta": 222,
    "de</w>": 223,
    "ne": 224,
    "em": 225,
    "di": 226,
    "ab": 227,
    "the": 228,
    "ex": 229,
    "su": 230,
    "ers</w>": 231,
    "com": 232,
    "qu": 233,
    "sh": 234,
    "00</w>": 235,
    "no": 236,
    "ation</w>": 237,
    "our": 238,
    "h</w>": 239,
    "oun": 240,
    "pa": 241,
    "la": 242,
    "it</w>": 243,
    "be": 244,
    "has</w>": 245,
    "ed": 246,
    "bl": 247,
    "ce</w>": 248,
    "ts</w>": 249,
    "go": 250,
    "$</w>": 251,
    "ge": 252,
    "have</w>": 253,
    "year": 254,
    "pres": 255,
    "for": 256,
    "se</w>": 257,
    "pu": 258,
    "po": 259,
    "ill</w>": 260,
    "was</w>": 261,
    "um": 262,
    "wi": 263,
    "obam": 264,
    "ere</w>": 265,
    "pe": 266,
    "tax": 267,
    "par": 268,
    "mo": 269,
    "bu": 270,
    "cent</w>": 271,
    "i</w>": 272,
    "ra": 273,
    "illion</w>": 274,
    "by</w>": 275,
    "ist": 276,
    "id</w>": 277,
    "’</w>": 278,
    "est": 279,
    "out</w>": 280,
    "os</w>": 281,
    "than</w>": 282,
    "cl": 283,
    "percent</w>": 284,
    "ore</w>": 285,
    "20": 286,
    "we</w>": 287,
    "por": 288,
    "our</w>": 289,
    "ld</w>": 290,
    "iv": 291,
    "presid": 292,
    "fro": 293,
    "ity</w>": 294,
    "se": 295,
    "cr": 296,
    "ment</w>": 297,
    "from</w>": 298,
    "he": 299,
    "and": 300,
    "ci": 301,
    "one</w>": 302,
    "with</w>": 303,
    "co": 304,
    "ow": 305,
    "ul": 306,
    "sp": 307,
    "ic</w>": 308,
    "ar</w>": 309,
    "(</w>": 310,
    ")</w>": 311,
    "el</w>": 312,
    "int": 313,
    "more</w>": 314,
    "end": 315,
    "ver</w>": 316,
    "ff": 317,
    "ions</w>": 318,
    "ma": 319,
    "obama</w>": 320,
    "ted</w>": 321,
    "und": 322,
    "1</w>": 323,
    "oo": 324,
    "state</w>": 325,
    "ies</w>": 326,
    "wor": 327,
    "ans</w>": 328,
    "pr": 329,
    "vot": 330,
    "ive</w>": 331,
    "la</w>": 332,
    "president</w>": 333,
    "ould</w>": 334,
    "es": 335,
    "ia</w>": 336,
    "5</w>": 337,
    "coun": 338,
    "cre": 339,
    "ates</w>": 340,
    "ir</w>": 341,
    "amer": 342,
    "all</w>": 343,
    "uc": 344,
    "000</w>": 345,
    "ple</w>": 346,
    "americ": 347,
    "igh": 348,
    "ary</w>": 349,
    "que</w>": 350,
    "gr": 351,
    "ay</w>": 352,
    "2</w>": 353,
    "ack</w>": 354,
    "not</w>": 355,
    "ke</w>": 356,
    "cu": 357,
    "li": 358,
    "leg": 359,
    "le</w>": 360,
    "publ": 361,
    "year</w>": 362,
    "tax</w>": 363,
    "peo": 364,
    "people</w>": 365,
    "tion</w>": 366,
    "his</w>": 367,
    "age</w>": 368,
    "ric": 369,
    "be</w>": 370,
    "he</w>": 371,
    "ice</w>": 372,
    "ca": 373,
    "alth</w>": 374,
    "no</w>": 375,
    "we": 376,
    "ter</w>": 377,
    "ty</w>": 378,
    "u</w>": 379,
    "201": 380,
    "iz": 381,
    "af": 382,
    "tim": 383,
    "health</w>": 384,
    "years</w>": 385,
    "job": 386,
    "mar": 387,
    "trum": 388,
    "get</w>": 389,
    "ing": 390,
    "you": 391,
    "million</w>": 392,
    "vern": 393,
    "their</w>": 394,
    "sec": 395,
    "use</w>": 396,
    "govern": 397,
    "ter": 398,
    "ally</w>": 399,
    "trump</w>": 400,
    "sup": 401,
    "rec": 402,
    "ther</w>": 403,
    "ents</w>": 404,
    "mon": 405,
    "care</w>": 406,
    "3</w>": 407,
    "over</w>": 408,
    "ju": 409,
    "pol": 410,
    "they</w>": 411,
    "will</w>": 412,
    "8</w>": 413,
    "you</w>": 414,
    "bar": 415,
    "new</w>": 416,
    "would</w>": 417,
    "don": 418,
    "op": 419,
    "who</w>": 420,
    "il</w>": 421,
    ":</w>": 422,
    "au": 423,
    "min": 424,
    "king</w>": 425,
    "said</w>": 426,
    "to": 427,
    "states</w>": 428,
    "off": 429,
    "any</w>": 430,
    "eral</w>": 431,
    "do": 432,
    "were</w>": 433,
    "been</w>": 434,
    "ated</w>": 435,
    "ant": 436,
    "about</w>": 437,
    "sch": 438,
    "ge</w>": 439,
    "9</w>": 440,
    "4</w>": 441,
    "very</w>": 442,
    "ph": 443,
    "6</w>": 444,
    "ev": 445,
    "emp": 446,
    "me": 447,
    "pos": 448,
    "ional</w>": 449,
    "vi": 450,
    "this</w>": 451,
    "if": 452,
    "ting</w>": 453,
    "bill</w>": 454,
    "bec": 455,
    "un</w>": 456,
    "br": 457,
    "ass": 458,
    "fl": 459,
    "its</w>": 460,
    "7</w>": 461,
    "ud": 462,
    "us</w>": 463,
    "“</w>": 464,
    "ks</w>": 465,
    "clint": 466,
    "jobs</w>": 467,
    "ke": 468,
    "ight</w>": 469,
    "own</w>": 470,
    "ad</w>": 471,
    "?</w>": 472,
    "nat": 473,
    "”</w>": 474,
    "now</w>": 475,
    "sen": 476,
    "str": 477,
    "there</w>": 478,
    "public": 479,
    "act": 480,
    "ap": 481,
    "car": 482,
    "up</w>": 483,
    "fir": 484,
    "tex": 485,
    "clinton</w>": 486,
    "sin": 487,
    "billion</w>": 488,
    "sur": 489,
    "when</w>": 490,
    "ain": 491,
    "med": 492,
    "los</w>": 493,
    "ón</w>": 494,
    "countr": 495,
    "ch</w>": 496,
    "ald</w>": 497,
    "act</w>": 498,
    "suppor": 499,
    "bo": 500,
    "ance</w>": 501,
    "fed": 502,
    "republic": 503,
    "loy": 504,
    "av": 505,
    "te": 506,
    "ut": 507,
    "demo": 508,
    "elec": 509,
    "cons": 510,
    "under</w>": 511,
    "voted</w>": 512,
    "ds</w>": 513,
    "all": 514,
    "if</w>": 515,
    "bus": 516,
    "ited</w>": 517,
    "employ": 518,
    "ss</w>": 519,
    "hou": 520,
    "law</w>": 521,
    "texas</w>": 522,
    "ine</w>": 523,
    "col": 524,
    "ant</w>": 525,
    "only</w>": 526,
    "democr": 527,
    "dr": 528,
    "cam": 529,
    "lar": 530,
    "federal</w>": 531,
    "government</w>": 532,
    "beca": 533,
    "because</w>": 534,
    "am</w>": 535,
    "bud": 536,
    "creas": 537,
    "ord": 538,
    "bi": 539,
    "every</w>": 540,
    "medic": 541,
    "day</w>": 542,
    "had</w>": 543,
    "pre": 544,
    "gres": 545,
    "chil": 546,
    "ve": 547,
    "tw": 548,
    "oug": 549,
    "since</w>": 550,
    "donald</w>": 551,
    "isl": 552,
    "most</w>": 553,
    "barack</w>": 554,
    "ici": 555,
    "comm": 556,
    "jo": 557,
    "ber</w>": 558,
    "ho": 559,
    "part": 560,
    "wom": 561,
    "increas": 562,
    "congres": 563,
    "anc": 564,
    "so": 565,
    "fe": 566,
    "ree</w>": 567,
    "ade</w>": 568,
    "budget</w>": 569,
    "country</w>": 570,
    "hill": 571,
    "ser": 572,
    "last</w>": 573,
    "ey</w>": 574,
    "si": 575,
    "taxes</w>": 576,
    "acc": 577,
    "hillary</w>": 578,
    "ned</w>": 579,
    "ants</w>": 580,
    "hig": 581,
    "wis": 582,
    "united</w>": 583,
    "ste": 584,
    "ire": 585,
    "duc": 586,
    "other</w>": 587,
    "ration</w>": 588,
    "ign</w>": 589,
    "time</w>": 590,
    "go</w>": 591,
    "plan</w>": 592,
    "aci": 593,
    "ite</w>": 594,
    "im</w>": 595,
    "att": 596,
    "man</w>": 597,
    "ome</w>": 598,
    "democrat": 599,
    "ida</w>": 600,
    "ors</w>": 601,
    "10</w>": 602,
    "after</w>": 603,
    "ending</w>": 604,
    "ue</w>": 605,
    "200": 606,
    "las</w>": 607,
    "19": 608,
    "do</w>": 609,
    "imm": 610,
    "cor": 611,
    "rais": 612,
    "ence</w>": 613,
    "ying</w>": 614,
    "ide</w>": 615,
    "dis": 616,
    "del</w>": 617,
    "ked</w>": 618,
    "50</w>": 619,
    "pay</w>": 620,
    "gu": 621,
    "mil": 622,
    "son</w>": 623,
    "first</w>": 624,
    "her</w>": 625,
    "can</w>": 626,
    "form": 627,
    "deb": 628,
    "fund": 629,
    "flor": 630,
    "oc": 631,
    "comp": 632,
    "tur": 633,
    "into</w>": 634,
    "again": 635,
    "against</w>": 636,
    "sc": 637,
    "so</w>": 638,
    "american</w>": 639,
    "og": 640,
    "mu": 641,
    "house</w>": 642,
    "ard</w>": 643,
    "old</w>": 644,
    "prov": 645,
    "def": 646,
    "wiscons": 647,
    "wisconsin</w>": 648,
    "geor": 649,
    "mis": 650,
    "inter": 651,
    "ri": 652,
    "per</w>": 653,
    "did</w>": 654,
    "ef": 655,
    "but</w>": 656,
    "money</w>": 657,
    "show": 658,
    "ool</w>": 659,
    "als</w>": 660,
    "cont": 661,
    "cial</w>": 662,
    "ó</w>": 663,
    "ook</w>": 664,
    "dol": 665,
    "ement</w>": 666,
    "dur": 667,
    "%</w>": 668,
    "ory</w>": 669,
    "verage</w>": 670,
    "econ": 671,
    "down</w>": 672,
    "low": 673,
    "re</w>": 674,
    "immig": 675,
    "ame</w>": 676,
    "row": 677,
    "republican</w>": 678,
    "io</w>": 679,
    "ente</w>": 680,
    "school</w>": 681,
    "city</w>": 682,
    "inv": 683,
    "ial</w>": 684,
    "just</w>": 685,
    "ado</w>": 686,
    "sho": 687,
    "hel": 688,
    "gen": 689,
    "dec": 690,
    "rate</w>": 691,
    "v</w>": 692,
    "minist": 693,
    "come</w>": 694,
    "ound</w>": 695,
    "obamac": 696,
    "americans</w>": 697,
    "national</w>": 698,
    "obamacare</w>": 699,
    "ile</w>": 700,
    "public</w>": 701,
    "ely</w>": 702,
    "even</w>": 703,
    "cut</w>": 704,
    "florida</w>": 705,
    "fa": 706,
    "reg": 707,
    "man": 708,
    "crim": 709,
    "spending</w>": 710,
    "econom": 711,
    "fam": 712,
    "ped</w>": 713,
    "end</w>": 714,
    "ren</w>": 715,
    "ina</w>": 716,
    "ace</w>": 717,
    "stud": 718,
    "ales</w>": 719,
    "20</w>": 720,
    "ber": 721,
    "sy": 722,
    "ich</w>": 723,
    "ble</w>": 724,
    "two</w>": 725,
    "used</w>": 726,
    "america</w>": 727,
    "secur": 728,
    "ood</w>": 729,
    "famil": 730,
    "x</w>": 731,
    "legal</w>": 732,
    "vir": 733,
    "ess</w>": 734,
    "ker</w>": 735,
    "less</w>": 736,
    "ations</w>": 737,
    "ning</w>": 738,
    "/</w>": 739,
    "pay": 740,
    "child": 741,
    "insur": 742,
    "fin": 743,
    "near": 744,
    "pen": 745,
    "ans": 746,
    "ación</w>": 747,
    "et</w>": 748,
    "ings</w>": 749,
    "shows</w>": 750,
    "ach": 751,
    "ong</w>": 752,
    "una</w>": 753,
    "ating</w>": 754,
    "them</w>": 755,
    "rap": 756,
    "ps</w>": 757,
    "cand": 758,
    "able</w>": 759,
    "my</w>": 760,
    "campa": 761,
    "du": 762,
    "insurance</w>": 763,
    "tions</w>": 764,
    "por</w>": 765,
    "women</w>": 766,
    "security</w>": 767,
    "et": 768,
    "during</w>": 769,
    "num": 770,
    "para</w>": 771,
    "ben": 772,
    "serv": 773,
    "way</w>": 774,
    "candid": 775,
    "ott</w>": 776,
    "senate</w>": 777,
    "office</w>": 778,
    "ses</w>": 779,
    "progr": 780,
    "contr": 781,
    "mc": 782,
    "fr": 783,
    "children</w>": 784,
    "chec": 785,
    "ous</w>": 786,
    "ney</w>": 787,
    "administ": 788,
    "joh": 789,
    "mill": 790,
    "stat": 791,
    "ang": 792,
    "ali": 793,
    "me</w>": 794,
    "[</w>": 795,
    "]</w>": 796,
    "um</w>": 797,
    "te</w>": 798,
    "ass</w>": 799,
    "world</w>": 800,
    "kers</w>": 801,
    "sig": 802,
    "ually</w>": 803,
    "cla": 804,
    "ough</w>": 805,
    "while</w>": 806,
    "ip</w>": 807,
    "vers": 808,
    "ry</w>": 809,
    "ce": 810,
    "priv": 811,
    "port": 812,
    "of": 813,
    "hist": 814,
    "ret": 815,
    "war": 816,
    "hal": 817,
    "four</w>": 818,
    "ure</w>": 819,
    "ens</w>": 820,
    "wal": 821,
    "cit": 822,
    "ie</w>": 823,
    "legisl": 824,
    "going</w>": 825,
    "wat": 826,
    "employment</w>": 827,
    "ico</w>": 828,
    "z</w>": 829,
    "char": 830,
    "pass": 831,
    "b</w>": 832,
    "nearly</w>": 833,
    "ws</w>": 834,
    "congress</w>": 835,
    "cas": 836,
    "three</w>": 837,
    "mi": 838,
    "chr": 839,
    "propos": 840,
    "order</w>": 841,
    "cost</w>": 842,
    "ical</w>": 843,
    "gre": 844,
    "white</w>": 845,
    "30</w>": 846,
    "times</w>": 847,
    "ition</w>": 848,
    "ect</w>": 849,
    "gov</w>": 850,
    "scott</w>": 851,
    "phot": 852,
    "which</w>": 853,
    "county</w>": 854,
    "average</w>": 855,
    "low</w>": 856,
    "your</w>": 857,
    "ell</w>": 858,
    "busin": 859,
    "loc": 860,
    "what</w>": 861,
    "right</w>": 862,
    "campaign</w>": 863,
    "con</w>": 864,
    "medicare</w>": 865,
    "educ": 866,
    "ire</w>": 867,
    "sen</w>": 868,
    "ell": 869,
    "ann": 870,
    "could</w>": 871,
    "hest</w>": 872,
    "social</w>": 873,
    "illegal</w>": 874,
    "pon": 875,
    "mem": 876,
    "she</w>": 877,
    "debt</w>": 878,
    "rick</w>": 879,
    "administration</w>": 880,
    "photog": 881,
    "thing</w>": 882,
    "enc": 883,
    "red</w>": 884,
    "cap": 885,
    "lars</w>": 886,
    "abor": 887,
    "vote</w>": 888,
    "fore</w>": 889,
    "ton</w>": 890,
    "cur": 891,
    "ada</w>": 892,
    "ose</w>": 893,
    "ect": 894,
    "dollars</w>": 895,
    "fact</w>": 896,
    "ref": 897,
    "stric": 898,
    "before</w>": 899,
    "om</w>": 900,
    "ool": 901,
    "governor</w>": 902,
    "like</w>": 903,
    "ered</w>": 904,
    "ru": 905,
    "took</w>": 906,
    "100</w>": 907,
    "increase</w>": 908,
    "bet": 909,
    "sand": 910,
    "sion</w>": 911,
    "prot": 912,
    "georg": 913,
    "ía</w>": 914,
    "tre": 915,
    "maj": 916,
    "cour": 917,
    "being</w>": 918,
    "income</w>": 919,
    "incl": 920,
    "never</w>": 921,
    "make</w>": 922,
    "democrats</w>": 923,
    "hol": 924,
    "ding</w>": 925,
    "with": 926,
    "40</w>": 927,
    "ists</w>": 928,
    "ual</w>": 929,
    "sol": 930,
    "des": 931,
    "wa": 932,
    "john</w>": 933,
    "check</w>": 934,
    "ons</w>": 935,
    "ist</w>": 936,
    "school": 937,
    "number</w>": 938,
    "taxpay": 939,
    "half</w>": 940,
    "sex": 941,
    "trans": 942,
    "bush</w>": 943,
    "har": 944,
    "mit": 945,
    "highest</w>": 946,
    "ana</w>": 947,
    "gun</w>": 948,
    "gest</w>": 949,
    "ied</w>": 950,
    "nation</w>": 951,
    "unemployment</w>": 952,
    "schools</w>": 953,
    "dic": 954,
    "hom": 955,
    "kill": 956,
    "pul": 957,
    "fun": 958,
    "education</w>": 959,
    "ul</w>": 960,
    "bre": 961,
    "rom": 962,
    "ash": 963,
    "tor</w>": 964,
    "job</w>": 965,
    "land</w>": 966,
    "mus": 967,
    "where</w>": 968,
    "eg": 969,
    "requ": 970,
    "candidate</w>": 971,
    "ast</w>": 972,
    "plan": 973,
    "ms</w>": 974,
    "history</w>": 975,
    "gin": 976,
    "ban": 977,
    "sts</w>": 978,
    "rev": 979,
    "georgia</w>": 980,
    "nor": 981,
    "sing</w>": 982,
    "support</w>": 983,
    "immigr": 984,
    "invest": 985,
    "bers</w>": 986,
    "cuts</w>": 987,
    "da": 988,
    "made</w>": 989,
    "back</w>": 990,
    "sal": 991,
    "enci": 992,
    "rus": 993,
    "five</w>": 994,
    "ach</w>": 995,
    "benef": 996,
    "call": 997,
    "some</w>": 998,
    "lev": 999,
    "may": 1000,
    "those</w>": 1001,
    "paid</w>": 1002,
    "ices</w>": 1003,
    "work</w>": 1004,
    "mic": 1005,
    "congress": 1006,
    "rol": 1007,
    "exp": 1008,
    "program</w>": 1009,
    "ip": 1010,
    "terr": 1011,
    "thr": 1012,
    "lost</w>": 1013,
    "election</w>": 1014,
    "today</w>": 1015,
    "form</w>": 1016,
    "fe</w>": 1017,
    "‘</w>": 1018,
    "ger</w>": 1019,
    "dy</w>": 1020,
    "same</w>": 1021,
    "funding</w>": 1022,
    "passed</w>": 1023,
    "ough": 1024,
    "take</w>": 1025,
    "spec": 1026,
    "over": 1027,
    "sed</w>": 1028,
    "port</w>": 1029,
    "uni": 1030,
    "iving</w>": 1031,
    "lead": 1032,
    "depart": 1033,
    "viol": 1034,
    "don</w>": 1035,
    "ives</w>": 1036,
    "tu": 1037,
    "grow": 1038,
    "off</w>": 1039,
    "high</w>": 1040,
    "iones</w>": 1041,
    "ack": 1042,
    "raph</w>": 1043,
    "can": 1044,
    "republicans</w>": 1045,
    "actually</w>": 1046,
    "15</w>": 1047,
    "created</w>": 1048,
    "bur": 1049,
    "democratic</w>": 1050,
    "stit": 1051,
    "war</w>": 1052,
    "west</w>": 1053,
    "many</w>": 1054,
    "milit": 1055,
    "bal": 1056,
    "polit": 1057,
    "má": 1058,
    "lo</w>": 1059,
    "ship</w>": 1060,
    "medi": 1061,
    "jer": 1062,
    "co</w>": 1063,
    "got</w>": 1064,
    "photograph</w>": 1065,
    "ved</w>": 1066,
    "oil</w>": 1067,
    "high": 1068,
    "ities</w>": 1069,
    "aff": 1070,
    "produc": 1071,
    "ep": 1072,
    "buil": 1073,
    "c</w>": 1074,
    "cent": 1075,
    "oh": 1076,
    "distric": 1077,
    "trillion</w>": 1078,
    "bor": 1079,
    "court</w>": 1080,
    "tting</w>": 1081,
    "kes</w>": 1082,
    "almost</w>": 1083,
    "department</w>": 1084,
    "includ": 1085,
    "est</w>": 1086,
    "forc": 1087,
    "ken</w>": 1088,
    "ority</w>": 1089,
    "private</w>": 1090,
    "romney</w>": 1091,
    "12</w>": 1092,
    "ando</w>": 1093,
    "den</w>": 1094,
    "stem</w>": 1095,
    "ific": 1096,
    "bill": 1097,
    "out": 1098,
    "más</w>": 1099,
    "wer</w>": 1100,
    "spe": 1101,
    "rece": 1102,
    "ba": 1103,
    "ined</w>": 1104,
    "mcca": 1105,
    "any": 1106,
    "vis": 1107,
    "500</w>": 1108,
    "christ": 1109,
    "vic": 1110,
    "citiz": 1111,
    "sm": 1112,
    "son": 1113,
    "clo": 1114,
    "employe": 1115,
    "ths</w>": 1116,
    "ris": 1117,
    "raise</w>": 1118,
    "ago</w>": 1119,
    "polic": 1120,
    "home</w>": 1121,
    "ady</w>": 1122,
    "vac": 1123,
    "bas": 1124,
    "rep</w>": 1125,
    "through</w>": 1126,
    "lob": 1127,
    "gh": 1128,
    "mccain</w>": 1129,
    "aid</w>": 1130,
    "nt</w>": 1131,
    "ns</w>": 1132,
    "ever</w>": 1133,
    "ti": 1134,
    "mid": 1135,
    "pat": 1136,
    "system</w>": 1137,
    "afric": 1138,
    "25</w>": 1139,
    "gas</w>": 1140,
    "police</w>": 1141,
    "colleg": 1142,
    "sub": 1143,
    "loo": 1144,
    "recor": 1145,
    "ero</w>": 1146,
    "dea": 1147,
    "sing": 1148,
    "erg": 1149,
    "military</w>": 1150,
    "ido</w>": 1151,
    "musl": 1152,
    "univers": 1153,
    "fac": 1154,
    "put</w>": 1155,
    "ibu": 1156,
    "ment": 1157,
    "11</w>": 1158,
    "entr": 1159,
    "ta</w>": 1160,
    "idad</w>": 1161,
    "defic": 1162,
    "say</w>": 1163,
    "immigrants</w>": 1164,
    "ving</w>": 1165,
    "family</w>": 1166,
    "statement</w>": 1167,
    "fil": 1168,
    "imul": 1169,
    "rel": 1170,
    "child</w>": 1171,
    "ft</w>": 1172,
    "black</w>": 1173,
    "economy</w>": 1174,
    "should</w>": 1175,
    "ohio</w>": 1176,
    "19</w>": 1177,
    "cer": 1178,
    "border</w>": 1179,
    "ay": 1180,
    "air": 1181,
    "supported</w>": 1182,
    "tic": 1183,
    "grou": 1184,
    "workers</w>": 1185,
    "wants</w>": 1186,
    "sou": 1187,
    "higher</w>": 1188,
    "popul": 1189,
    "60</w>": 1190,
    "san</w>": 1191,
    "cali": 1192,
    "mand": 1193,
    "ga": 1194,
    "water</w>": 1195,
    "without</w>": 1196,
    "bro": 1197,
    "ently</w>": 1198,
    "ther": 1199,
    "add": 1200,
    "ult</w>": 1201,
    "immigration</w>": 1202,
    "still</w>": 1203,
    "ange</w>": 1204,
    "yor": 1205,
    "ments</w>": 1206,
    "ier": 1207,
    "costs</w>": 1208,
    "prim": 1209,
    "top</w>": 1210,
    "wee": 1211,
    "direc": 1212,
    "led</w>": 1213,
    "sel": 1214,
    "70</w>": 1215,
    "ful": 1216,
    "ian</w>": 1217,
    "ected</w>": 1218,
    "forn": 1219,
    "woman</w>": 1220,
    "!</w>": 1221,
    "sted</w>": 1222,
    "res</w>": 1223,
    "ator</w>": 1224,
    "star": 1225,
    "á</w>": 1226,
    "bel": 1227,
    "thir": 1228,
    "doc": 1229,
    "ats</w>": 1230,
    "business</w>": 1231,
    "stimul": 1232,
    "students</w>": 1233,
    "ative</w>": 1234,
    "…</w>": 1235,
    "2016</w>": 1236,
    "terror": 1237,
    "dou": 1238,
    "californ": 1239,
    "proposed</w>": 1240,
    "ired</w>": 1241,
    "mex": 1242,
    "su</w>": 1243,
    "know</w>": 1244,
    "curr": 1245,
    "millions</w>": 1246,
    "ine": 1247,
    "contro": 1248,
    "ados</w>": 1249,
    "ento</w>": 1250,
    "party</w>": 1251,
    "walker</w>": 1252,
    "claim": 1253,
    "person": 1254,
    "allow": 1255,
    "wash": 1256,
    "isis</w>": 1257,
    "som": 1258,
    "went</w>": 1259,
    "stimulus</w>": 1260,
    "george</w>": 1261,
    "away</w>": 1262,
    "gun": 1263,
    "killed</w>": 1264,
    "80</w>": 1265,
    "lin": 1266,
    "spent</w>": 1267,
    "general</w>": 1268,
    "ven</w>": 1269,
    "none</w>": 1270,
    "single</w>": 1271,
    "dle</w>": 1272,
    "mat": 1273,
    "aliz": 1274,
    "mur": 1275,
    "ond</w>": 1276,
    "ha</w>": 1277,
    "college</w>": 1278,
    "using</w>": 1279,
    "abortion</w>": 1280,
    "brea": 1281,
    "den": 1282,
    "much</w>": 1283,
    "compan": 1284,
    "let": 1285,
    "york</w>": 1286,
    "dro": 1287,
    "crime</w>": 1288,
    "here</w>": 1289,
    "reduc": 1290,
    "ages</w>": 1291,
    "called</w>": 1292,
    "washing": 1293,
    "families</w>": 1294,
    "ics</w>": 1295,
    "q</w>": 1296,
    "indi": 1297,
    "vide": 1298,
    "does</w>": 1299,
    "fund</w>": 1300,
    "ores</w>": 1301,
    "ween</w>": 1302,
    "did": 1303,
    "ential</w>": 1304,
    "ase</w>": 1305,
    "increased</w>": 1306,
    "struc": 1307,
    "bab": 1308,
    "ility</w>": 1309,
    "crimin": 1310,
    "companies</w>": 1311,
    "ner</w>": 1312,
    "china</w>": 1313,
    "der": 1314,
    "ind</w>": 1315,
    "r</w>": 1316,
    "deficit</w>": 1317,
    "stre": 1318,
    "ari": 1319,
    "fo": 1320,
    "largest</w>": 1321,
    "gan": 1322,
    "ban</w>": 1323,
    "virgin": 1324,
    "economic</w>": 1325,
    "middle</w>": 1326,
    "ters</w>": 1327,
    "pan": 1328,
    "benefits</w>": 1329,
    "mass": 1330,
    "mor": 1331,
    "ira": 1332,
    "free</w>": 1333,
    "some": 1334,
    "supre": 1335,
    "capit": 1336,
    "respon": 1337,
    "employees</w>": 1338,
    "change</w>": 1339,
    "ready</w>": 1340,
    "90</w>": 1341,
    "rates</w>": 1342,
    "ib": 1343,
    "washington</w>": 1344,
    "amente</w>": 1345,
    "mitt</w>": 1346,
    "class</w>": 1347,
    "lear</w>": 1348,
    "mayor</w>": 1349,
    "between</w>": 1350,
    "reform</w>": 1351,
    "hum": 1352,
    "ego</w>": 1353,
    "peri": 1354,
    "california</w>": 1355,
    "want</w>": 1356,
    "shoot": 1357,
    "cov": 1358,
    "issu": 1359,
    "imp": 1360,
    "eff": 1361,
    "ud</w>": 1362,
    "show</w>": 1363,
    "record</w>": 1364,
    "then</w>": 1365,
    "ids</w>": 1366,
    "men</w>": 1367,
    "dru": 1368,
    "dep": 1369,
    "law": 1370,
    "veter": 1371,
    "ish</w>": 1372,
    "oppos": 1373,
    "regul": 1374,
    "former</w>": 1375,
    "ians</w>": 1376,
    "ross</w>": 1377,
    "deal</w>": 1378,
    "fra": 1379,
    "covid</w>": 1380,
    "tro": 1381,
    "majority</w>": 1382,
    "members</w>": 1383,
    "eb": 1384,
    "ense</w>": 1385,
    "ain</w>": 1386,
    "der</w>": 1387,
    "line</w>": 1388,
    "ep</w>": 1389,
    "side</w>": 1390,
    "fer": 1391,
    "ie": 1392,
    "past</w>": 1393,
    "found</w>": 1394,
    "taxpayers</w>": 1395,
    "inform": 1396,
    "ante</w>": 1397,
    "pris": 1398,
    "seg": 1399,
    "ades</w>": 1400,
    "udi": 1401,
    "chang": 1402,
    "legislation</w>": 1403,
    "force</w>": 1404,
    "proj": 1405,
    "ves</w>": 1406,
    "ution</w>": 1407,
    "les</w>": 1408,
    "promis": 1409,
    "virginia</w>": 1410,
    "dont</w>": 1411,
    "small</w>": 1412,
    "already</w>": 1413,
    "canc": 1414,
    "does": 1415,
    "añ": 1416,
    "lat": 1417,
    "video</w>": 1418,
    "lot</w>": 1419,
    "ones</w>": 1420,
    "ought</w>": 1421,
    "disa": 1422,
    "reven": 1423,
    "assa": 1424,
    "commit": 1425,
    "wau": 1426,
    "working</w>": 1427,
    "ket</w>": 1428,
    "provid": 1429,
    "ten": 1430,
    "district</w>": 1431,
    "just": 1432,
    "ically</w>": 1433,
    "medicaid</w>": 1434,
    "dav": 1435,
    "life</w>": 1436,
    "ency</w>": 1437,
    "him</w>": 1438,
    "place</w>": 1439,
    "energ": 1440,
    "part</w>": 1441,
    "six</w>": 1442,
    "raised</w>": 1443,
    "diego</w>": 1444,
    "sex</w>": 1445,
    "iraq</w>": 1446,
    "commun": 1447,
    "ran": 1448,
    "secret": 1449,
    "ster</w>": 1450,
    "supreme</w>": 1451,
    "ented</w>": 1452,
    "nu": 1453,
    "ten</w>": 1454,
    "these</w>": 1455,
    "growth</w>": 1456,
    "sto": 1457,
    "milwau": 1458,
    "ams</w>": 1459,
    "each</w>": 1460,
    "rele": 1461,
    "body</w>": 1462,
    "proper": 1463,
    "control</w>": 1464,
    "laws</w>": 1465,
    "repres": 1466,
    "comb": 1467,
    "wage</w>": 1468,
    "coll": 1469,
    "corpor": 1470,
    "trade</w>": 1471,
    "north</w>": 1472,
    "dem": 1473,
    "due</w>": 1474,
    "thou": 1475,
    "congressional</w>": 1476,
    "citizens</w>": 1477,
    "board</w>": 1478,
    "ins</w>": 1479,
    "ends</w>": 1480,
    "real</w>": 1481,
    "offic": 1482,
    "ya</w>": 1483,
    "cover": 1484,
    "signed</w>": 1485,
    "month</w>": 1486,
    "tal": 1487,
    "az": 1488,
    "investig": 1489,
    "ived</w>": 1490,
    "ize</w>": 1491,
    "tom": 1492,
    "lowest</w>": 1493,
    "ended</w>": 1494,
    "spit": 1495,
    "kee</w>": 1496,
    "como</w>": 1497,
    "including</w>": 1498,
    "acks</w>": 1499,
    "ident": 1500,
    "hospit": 1501,
    "sum": 1502,
    "offici": 1503,
    "jerse": 1504,
    "veterans</w>": 1505,
    "idents</w>": 1506,
    "2011</w>": 1507,
    "group</w>": 1508,
    "sector</w>": 1509,
    "agan</w>": 1510,
    "among</w>": 1511,
    "alth": 1512,
    "arm": 1513,
    "constit": 1514,
    "thin": 1515,
    "stand": 1516,
    "nom": 1517,
    "lit": 1518,
    "ties</w>": 1519,
    "supports</w>": 1520,
    "company</w>": 1521,
    "second</w>": 1522,
    "youn": 1523,
    "days</w>": 1524,
    "tot": 1525,
    "coverage</w>": 1526,
    "lab": 1527,
    "ecut": 1528,
    "finan": 1529,
    "fi": 1530,
    "seven</w>": 1531,
    "ound": 1532,
    "13</w>": 1533,
    "indu": 1534,
    "bled</w>": 1535,
    "milwaukee</w>": 1536,
    "give</w>": 1537,
    "ún</w>": 1538,
    "presidential</w>": 1539,
    "án</w>": 1540,
    "making</w>": 1541,
    "vie": 1542,
    "how</w>": 1543,
    "sus</w>": 1544,
    "south</w>": 1545,
    "death</w>": 1546,
    "pur": 1547,
    "industr": 1548,
    "—</w>": 1549,
    "pi": 1550,
    "fact": 1551,
    "velo": 1552,
    "rho": 1553,
    "rhode</w>": 1554,
    "mexico</w>": 1555,
    "prof": 1556,
    "develo": 1557,
    "island</w>": 1558,
    "tor": 1559,
    "report</w>": 1560,
    "2008</w>": 1561,
    "imum</w>": 1562,
    "inc": 1563,
    "sor": 1564,
    "clim": 1565,
    "2012</w>": 1566,
    "help</w>": 1567,
    "accoun": 1568,
    "months</w>": 1569,
    "arre": 1570,
    "voting</w>": 1571,
    "third</w>": 1572,
    "ess": 1573,
    "contribu": 1574,
    "unt": 1575,
    "hur": 1576,
    "came</w>": 1577,
    "student</w>": 1578,
    "esses</w>": 1579,
    "vent": 1580,
    "lar</w>": 1581,
    "grad": 1582,
    "je": 1583,
    "ism</w>": 1584,
    "lower</w>": 1585,
    "int</w>": 1586,
    "muslim</w>": 1587,
    "affor": 1588,
    "hor": 1589,
    "spend</w>": 1590,
    "rul": 1591,
    "2009</w>": 1592,
    "ls</w>": 1593,
    "fore": 1594,
    "ish": 1595,
    "nex": 1596,
    "dat": 1597,
    "lu": 1598,
    "countries</w>": 1599,
    "claim</w>": 1600,
    "fail": 1601,
    "ately</w>": 1602,
    "keep</w>": 1603,
    "cru": 1604,
    "encia</w>": 1605,
    "vid": 1606,
    "energy</w>": 1607,
    "university</w>": 1608,
    "2017</w>": 1609,
    "decl": 1610,
    "planned</w>": 1611,
    "pero</w>": 1612,
    "least</w>": 1613,
    "eng": 1614,
    "oreg": 1615,
    "minimum</w>": 1616,
    "left</w>": 1617,
    "obamas</w>": 1618,
    "pt</w>": 1619,
    "equ": 1620,
    "ping</w>": 1621,
    "execut": 1622,
    "food</w>": 1623,
    "news</w>": 1624,
    "property</w>": 1625,
    "od</w>": 1626,
    "imin": 1627,
    "businesses</w>": 1628,
    "run": 1629,
    "next</w>": 1630,
    "taxpayer</w>": 1631,
    "nuc": 1632,
    "votes</w>": 1633,
    "18</w>": 1634,
    "major</w>": 1635,
    "prob": 1636,
    "service</w>": 1637,
    "bir": 1638,
    "organ": 1639,
    "recent</w>": 1640,
    "duce</w>": 1641,
    "young</w>": 1642,
    "une</w>": 1643,
    "ever": 1644,
    "sible</w>": 1645,
    "foreign</w>": 1646,
    "african</w>": 1647,
    "200</w>": 1648,
    "run</w>": 1649,
    "elected</w>": 1650,
    "ged</w>": 1651,
    "let</w>": 1652,
    "fire": 1653,
    "jersey</w>": 1654,
    "ember</w>": 1655,
    "sands</w>": 1656,
    "stop</w>": 1657,
    "guns</w>": 1658,
    "dollar</w>": 1659,
    "local</w>": 1660,
    "lon": 1661,
    "men": 1662,
    "era</w>": 1663,
    "300</w>": 1664,
    "reagan</w>": 1665,
    "see</w>": 1666,
    "population</w>": 1667,
    "nuclear</w>": 1668,
    "aust": 1669,
    "own": 1670,
    "mari": 1671,
    "sign": 1672,
    "nie</w>": 1673,
    "este</w>": 1674,
    "gob": 1675,
    "cou": 1676,
    "ra</w>": 1677,
    "repe": 1678,
    "senator</w>": 1679,
    "thousands</w>": 1680,
    "ry": 1681,
    "mot": 1682,
    "ground</w>": 1683,
    "power</w>": 1684,
    "eight</w>": 1685,
    "fol": 1686,
    "2018</w>": 1687,
    "ights</w>": 1688,
    "jud": 1689,
    "seni": 1690,
    "agre": 1691,
    "tar": 1692,
    "drug</w>": 1693,
    "ture</w>": 1694,
    "els</w>": 1695,
    "person</w>": 1696,
    "amend": 1697,
    "ail</w>": 1698,
    "car</w>": 1699,
    "paul</w>": 1700,
    "won</w>": 1701,
    "pe</w>": 1702,
    "bio</w>": 1703,
    "adv": 1704,
    "iran</w>": 1705,
    ";</w>": 1706,
    "esta</w>": 1707,
    "legislat": 1708,
    "lan": 1709,
    "ica</w>": 1710,
    "david</w>": 1711,
    "tom</w>": 1712,
    "diff": 1713,
    "nes": 1714,
    "ld": 1715,
    "fel": 1716,
    "mariju": 1717,
    "marijuana</w>": 1718,
    "hi": 1719,
    "individ": 1720,
    "plac": 1721,
    "pover": 1722,
    "2010</w>": 1723,
    "elimin": 1724,
    "poverty</w>": 1725,
    "self</w>": 1726,
    "wall</w>": 1727,
    "enth": 1728,
    "uses</w>": 1729,
    "lea": 1730,
    "ancy</w>": 1731,
    "16</w>": 1732,
    "big</w>": 1733,
    "aciones</w>": 1734,
    "buy</w>": 1735,
    "si</w>": 1736,
    "regist": 1737,
    "voters</w>": 1738,
    "teach": 1739,
    "ail": 1740,
    "hund": 1741,
    "paí": 1742,
    "now": 1743,
    "aron</w>": 1744,
    "gs</w>": 1745,
    "auth": 1746,
    "union</w>": 1747,
    "term</w>": 1748,
    "mark</w>": 1749,
    "ality</w>": 1750,
    "sk": 1751,
    "adas</w>": 1752,
    "199": 1753,
    "brow": 1754,
    "perry</w>": 1755,
    "born</w>": 1756,
    "her": 1757,
    "ni": 1758,
    "ale</w>": 1759,
    "hu": 1760,
    "every": 1761,
    "dom": 1762,
    "protest": 1763,
    "back": 1764,
    "bills</w>": 1765,
    "ording</w>": 1766,
    "sia</w>": 1767,
    "eu": 1768,
    "afford": 1769,
    "ision</w>": 1770,
    "sanders</w>": 1771,
    "told</w>": 1772,
    "repor": 1773,
    "once</w>": 1774,
    "joe</w>": 1775,
    "gir": 1776,
    "didn</w>": 1777,
    "row</w>": 1778,
    "raph": 1779,
    "funds</w>": 1780,
    "covered</w>": 1781,
    "ling</w>": 1782,
    "full</w>": 1783,
    "quar": 1784,
    "long</w>": 1785,
    "tam": 1786,
    "ción</w>": 1787,
    "pped</w>": 1788,
    "received</w>": 1789,
    "test": 1790,
    "pt": 1791,
    "died</w>": 1792,
    "sions</w>": 1793,
    "anta</w>": 1794,
    "net</w>": 1795,
    "executive</w>": 1796,
    "wr": 1797,
    "gradu": 1798,
    "iven</w>": 1799,
    "17</w>": 1800,
    "democrat</w>": 1801,
    "ures</w>": 1802,
    "revenue</w>": 1803,
    "gave</w>": 1804,
    "gener": 1805,
    "services</w>": 1806,
    "glob": 1807,
    "hap": 1808,
    "organiz": 1809,
    "may</w>": 1810,
    "parenth": 1811,
    "wro": 1812,
    "wrote</w>": 1813,
    "ech</w>": 1814,
    "austin</w>": 1815,
    "ful</w>": 1816,
    "shar": 1817,
    "ane</w>": 1818,
    "also</w>": 1819,
    "fre": 1820,
    "air</w>": 1821,
    "ering</w>": 1822,
    "current</w>": 1823,
    "2013</w>": 1824,
    "financial</w>": 1825,
    "remo": 1826,
    "parenthood</w>": 1827,
    "400</w>": 1828,
    "ops</w>": 1829,
    "amed</w>": 1830,
    "taken</w>": 1831,
    "entire</w>": 1832,
    "well</w>": 1833,
    "gets</w>": 1834,
    "affordable</w>": 1835,
    "special</w>": 1836,
    "medical</w>": 1837,
    "around</w>": 1838,
    "test</w>": 1839,
    "combined</w>": 1840,
    "cond": 1841,
    "attor": 1842,
    "hand": 1843,
    "acked</w>": 1844,
    "mo</w>": 1845,
    "sim": 1846,
    "fu": 1847,
    "tle</w>": 1848,
    "ified</w>": 1849,
    "political</w>": 1850,
    "ased</w>": 1851,
    "bi</w>": 1852,
    "sent</w>": 1853,
    "dra": 1854,
    "defense</w>": 1855,
    "gobier": 1856,
    "ires</w>": 1857,
    "hear": 1858,
    "nothing</w>": 1859,
    "getting</w>": 1860,
    "rad": 1861,
    "ide": 1862,
    "ech": 1863,
    "cient": 1864,
    "ham": 1865,
    "soci": 1866,
    "dit</w>": 1867,
    "total</w>": 1868,
    "across</w>": 1869,
    "kids</w>": 1870,
    "ounc": 1871,
    "val": 1872,
    "exist": 1873,
    "sin</w>": 1874,
    "forced</w>": 1875,
    "week</w>": 1876,
    "claims</w>": 1877,
    "oregon</w>": 1878,
    "pal": 1879,
    "big": 1880,
    "taking</w>": 1881,
    "quest": 1882,
    "secretary</w>": 1883,
    "legally</w>": 1884,
    "marri": 1885,
    "thre": 1886,
    "14</w>": 1887,
    "new": 1888,
    "voter</w>": 1889,
    "electr": 1890,
    "spea": 1891,
    "dos</w>": 1892,
    "ariz": 1893,
    "fis": 1894,
    "russia</w>": 1895,
    "amendment</w>": 1896,
    "mun": 1897,
    "ges</w>": 1898,
    "according</w>": 1899,
    "up": 1900,
    "appro": 1901,
    "lim": 1902,
    "member</w>": 1903,
    "access</w>": 1904,
    "allow</w>": 1905,
    "según</w>": 1906,
    "erv": 1907,
    "ious</w>": 1908,
    "han</w>": 1909,
    "sob": 1910,
    "create</w>": 1911,
    "seen</w>": 1912,
    "gone</w>": 1913,
    "ason</w>": 1914,
    "estim": 1915,
    "helped</w>": 1916,
    "fire</w>": 1917,
    "itions</w>": 1918,
    "anted</w>": 1919,
    "decade</w>": 1920,
    "rest": 1921,
    "ea</w>": 1922,
    "policy</w>": 1923,
    "wel": 1924,
    "need</w>": 1925,
    "weap": 1926,
    "amoun": 1927,
    "nac": 1928,
    "live</w>": 1929,
    "whe": 1930,
    "level</w>": 1931,
    "until</w>": 1932,
    "coron": 1933,
    "cle": 1934,
    "need": 1935,
    "ene</w>": 1936,
    "proc": 1937,
    "manu": 1938,
    "mul": 1939,
    "saying</w>": 1940,
    "policies</w>": 1941,
    "ership</w>": 1942,
    "better</w>": 1943,
    "think</w>": 1944,
    "carol": 1945,
    "running</w>": 1946,
    "bul": 1947,
    "street</w>": 1948,
    "#</w>": 1949,
    "aining</w>": 1950,
    "ren": 1951,
    "under": 1952,
    "dest": 1953,
    "pac": 1954,
    "sid": 1955,
    "attorney</w>": 1956,
    "da</w>": 1957,
    "resul": 1958,
    "best</w>": 1959,
    "uary</w>": 1960,
    "confir": 1961,
    "twice</w>": 1962,
    "cul": 1963,
    "than": 1964,
    "paying</w>": 1965,
    "kill</w>": 1966,
    "fem": 1967,
    "ender</w>": 1968,
    "fla": 1969,
    "compar": 1970,
    "represent": 1971,
    "ca</w>": 1972,
    "ut</w>": 1973,
    "signific": 1974,
    "ply</w>": 1975,
    "rights</w>": 1976,
    "climate</w>": 1977,
    "study</w>": 1978,
    "oper": 1979,
    "ol</w>": 1980,
    "sive</w>": 1981,
    "rubio</w>": 1982,
    "plus</w>": 1983,
    "gar": 1984,
    "ective</w>": 1985,
    "allowed</w>": 1986,
    "800</w>": 1987,
    "ryan</w>": 1988,
    "sales</w>": 1989,
    "fri": 1990,
    "contra</w>": 1991,
    "21</w>": 1992,
    "announc": 1993,
    "entes</w>": 1994,
    "sour": 1995,
    "not": 1996,
    "found": 1997,
    "2014</w>": 1998,
    "consum": 1999,
    "ours</w>": 2000,
    "global</w>": 2001,
    "mé": 2002,
    "nations</w>": 2003,
    "opposed</w>": 2004,
    "cause</w>": 2005,
    "win": 2006,
    "tru": 2007,
    "años</w>": 2008,
    "action</w>": 2009,
    "tain</w>": 2010,
    "proble": 2011,
    "ma</w>": 2012,
    "residents</w>": 2013,
    "antes</w>": 2014,
    "trav": 2015,
    "victim": 2016,
    "doubled</w>": 2017,
    "bs</w>": 2018,
    "chris</w>": 2019,
    "contin": 2020,
    "differ": 2021,
    "counc": 2022,
    "ick</w>": 2023,
    "sher": 2024,
    "22</w>": 2025,
    "fal": 2026,
    "cancer</w>": 2027,
    "arios</w>": 2028,
    "mente</w>": 2029,
    "got": 2030,
    "industry</w>": 2031,
    "look</w>": 2032,
    "violence</w>": 2033,
    "lie</w>": 2034,
    "cal": 2035,
    "inf": 2036,
    "retur": 2037,
    "funded</w>": 2038,
    "given</w>": 2039,
    "head</w>": 2040,
    "atl": 2041,
    "ues</w>": 2042,
    "bernie</w>": 2043,
    "reduce</w>": 2044,
    "oppon": 2045,
    "gay</w>": 2046,
    "fraud</w>": 2047,
    "sus": 2048,
    "coming</w>": 2049,
    "teachers</w>": 2050,
    "ast": 2051,
    "build</w>": 2052,
    "human</w>": 2053,
    "ron": 2054,
    "endor": 2055,
    "anti</w>": 2056,
    "protec": 2057,
    "raising</w>": 2058,
    "ger": 2059,
    "sever": 2060,
    "aged</w>": 2061,
    "2015</w>": 2062,
    "far</w>": 2063,
    "worst</w>": 2064,
    "traff": 2065,
    "approv": 2066,
    "both</w>": 2067,
    "zero</w>": 2068,
    "comes</w>": 2069,
    "iona": 2070,
    "ona</w>": 2071,
    "coronav": 2072,
    "plans</w>": 2073,
    "sl": 2074,
    "ized</w>": 2075,
    "sw": 2076,
    "premi": 2077,
    "set</w>": 2078,
    "ators</w>": 2079,
    "ebook</w>": 2080,
    "23</w>": 2081,
    "esto</w>": 2082,
    "carolina</w>": 2083,
    "pre</w>": 2084,
    "fran": 2085,
    "experi": 2086,
    "ven": 2087,
    "qui": 2088,
    "irus</w>": 2089,
    "fbi</w>": 2090,
    "die</w>": 2091,
    "24</w>": 2092,
    "refu": 2093,
    "thers</w>": 2094,
    "mer": 2095,
    "ses": 2096,
    "massach": 2097,
    "massachus": 2098,
    "massachuset": 2099,
    "massachusetts</w>": 2100,
    "town</w>": 2101,
    "gl": 2102,
    "lement": 2103,
    "islam": 2104,
    "iento</w>": 2105,
    "coronavirus</w>": 2106,
    "700</w>": 2107,
    "ka</w>": 2108,
    "troops</w>": 2109,
    "partis": 2110,
    "asked</w>": 2111,
    "shot</w>": 2112,
    "doesn</w>": 2113,
    "acy</w>": 2114,
    "ieve</w>": 2115,
    "thats</w>": 2116,
    "icos</w>": 2117,
    "suc": 2118,
    "lib": 2119,
    "ects</w>": 2120,
    "debate</w>": 2121,
    "labor</w>": 2122,
    "primary</w>": 2123,
    "officers</w>": 2124,
    "saved</w>": 2125,
    "increases</w>": 2126,
    "facebook</w>": 2127,
    "partisan</w>": 2128,
    "ión</w>": 2129,
    "és</w>": 2130,
    "programs</w>": 2131,
    "che": 2132,
    "having</w>": 2133,
    "marco</w>": 2134,
    "failed</w>": 2135,
    "legislature</w>": 2136,
    "great</w>": 2137,
    "manufact": 2138,
    "ston</w>": 2139,
    "reci": 2140,
    "lose</w>": 2141,
    "infl": 2142,
    "jo</w>": 2143,
    "officials</w>": 2144,
    "endo</w>": 2145,
    "figh": 2146,
    "consid": 2147,
    "committe": 2148,
    "reds</w>": 2149,
    "too</w>": 2150,
    "house": 2151,
    "crit": 2152,
    "gobierno</w>": 2153,
    "sa</w>": 2154,
    "result</w>": 2155,
    "fav": 2156,
    "ah</w>": 2157,
    "trying</w>": 2158,
    "pri": 2159,
    "list</w>": 2160,
    "pass</w>": 2161,
    "75</w>": 2162,
    "ming</w>": 2163,
    "know": 2164,
    "ames</w>": 2165,
    "están</w>": 2166,
    "sobre</w>": 2167,
    "rape</w>": 2168,
    "view</w>": 2169,
    "beg": 2170,
    "ury</w>": 2171,
    "depend": 2172,
    "criminal</w>": 2173,
    "ley</w>": 2174,
    "meas": 2175,
    "crisis</w>": 2176,
    "commis": 2177,
    "hundreds</w>": 2178,
    "super": 2179,
    "congressman</w>": 2180,
    "plic": 2181,
    "refuge": 2182,
    "done</w>": 2183,
    "cho": 2184,
    "accep": 2185,
    "credit</w>": 2186,
    "non</w>": 2187,
    "play": 2188,
    "ron</w>": 2189,
    "believe</w>": 2190,
    "has": 2191,
    "sexual</w>": 2192,
    "conn": 2193,
    "lic": 2194,
    "they": 2195,
    "brown</w>": 2196,
    "tow": 2197,
    "win</w>": 2198,
    "attack</w>": 2199,
    "ota</w>": 2200,
    "mike</w>": 2201,
    "pose</w>": 2202,
    "fisc": 2203,
    "elig": 2204,
    "another</w>": 2205,
    "ads</w>": 2206,
    "ines</w>": 2207,
    "istan</w>": 2208,
    "vacun": 2209,
    "longer</w>": 2210,
    "large</w>": 2211,
    "few</w>": 2212,
    "cia</w>": 2213,
    "invol": 2214,
    "mes": 2215,
    "activ": 2216,
    "ronald</w>": 2217,
    "see": 2218,
    "giving</w>": 2219,
    "ino": 2220,
    "fall": 2221,
    "cities</w>": 2222,
    "lik": 2223,
    "illing</w>": 2224,
    "ims</w>": 2225,
    "background</w>": 2226,
    "civ": 2227,
    "bloc": 2228,
    "close</w>": 2229,
    "little</w>": 2230,
    "arrested</w>": 2231,
    "parents</w>": 2232,
    "tors</w>": 2233,
    "beh": 2234,
    "attacks</w>": 2235,
    "gn": 2236,
    "save</w>": 2237,
    "sign</w>": 2238,
    "reduced</w>": 2239,
    "hurric": 2240,
    "conserv": 2241,
    "became</w>": 2242,
    "cases</w>": 2243,
    "gop</w>": 2244,
    "decid": 2245,
    "spon": 2246,
    "fare</w>": 2247,
    "russi": 2248,
    "está</w>": 2249,
    "ken": 2250,
    "terms</w>": 2251,
    "bly</w>": 2252,
    "weve</w>": 2253,
    "ither</w>": 2254,
    "aries</w>": 2255,
    "hood</w>": 2256,
    "prices</w>": 2257,
    "room</w>": 2258,
    "brid": 2259,
    "numbers</w>": 2260,
    "good</w>": 2261,
    "ty": 2262,
    "ania</w>": 2263,
    "iev": 2264,
    "june</w>": 2265,
    "ward</w>": 2266,
    "behind</w>": 2267,
    "light</w>": 2268,
    "tuition</w>": 2269,
    "muslims</w>": 2270,
    "euro": 2271,
    "portation</w>": 2272,
    "cy</w>": 2273,
    "march</w>": 2274,
    "na": 2275,
    "birth</w>": 2276,
    "ways</w>": 2277,
    "bot": 2278,
    "marriage</w>": 2279,
    "ress</w>": 2280,
    "bon": 2281,
    "olog": 2282,
    "named</w>": 2283,
    "bra": 2284,
    "lives</w>": 2285,
    "seniors</w>": 2286,
    "irs</w>": 2287,
    "building</w>": 2288,
    "letter</w>": 2289,
    "virus</w>": 2290,
    "speech</w>": 2291,
    "candidates</w>": 2292,
    "ino</w>": 2293,
    "lobb": 2294,
    "ple": 2295,
    "flag</w>": 2296,
    "sit": 2297,
    "creation</w>": 2298,
    "idos</w>": 2299,
    "án": 2300,
    "ony</w>": 2301,
    "opponent</w>": 2302,
    "whether</w>": 2303,
    "35</w>": 2304,
    "leave</w>": 2305,
    "prison</w>": 2306,
    "terrorists</w>": 2307,
    "race</w>": 2308,
    "started</w>": 2309,
    "tin</w>": 2310,
    "welfare</w>": 2311,
    "provide</w>": 2312,
    "baby</w>": 2313,
    "ro</w>": 2314,
    "arizona</w>": 2315,
    "name</w>": 2316,
    "iting</w>": 2317,
    "cruz</w>": 2318,
    "ball</w>": 2319,
    "photograph": 2320,
    "proposal</w>": 2321,
    "desp": 2322,
    "massive</w>": 2323,
    "ear</w>": 2324,
    "za</w>": 2325,
    "announced</w>": 2326,
    "45</w>": 2327,
    "foundation</w>": 2328,
    "released</w>": 2329,
    "bure": 2330,
    "sav": 2331,
    "hours</w>": 2332,
    "san": 2333,
    "icip": 2334,
    "arab": 2335,
    "nel": 2336,
    "cents</w>": 2337,
    "council</w>": 2338,
    "living</w>": 2339,
    "xim": 2340,
    "susp": 2341,
    "atlanta</w>": 2342,
    "yer</w>": 2343,
    "michel": 2344,
    "likely</w>": 2345,
    "africa</w>": 2346,
    "market</w>": 2347,
    "worker</w>": 2348,
    "pro</w>": 2349,
    "ums</w>": 2350,
    "percent": 2351,
    "ible</w>": 2352,
    "wide</w>": 2353,
    "wanted</w>": 2354,
    "del": 2355,
    "mass</w>": 2356,
    "things</w>": 2357,
    "biggest</w>": 2358,
    "resear": 2359,
    "jim</w>": 2360,
    "inst": 2361,
    "christie</w>": 2362,
    "hon": 2363,
    "jan": 2364,
    "sla": 2365,
    "ugh": 2366,
    "reco": 2367,
    "iver</w>": 2368,
    "violent</w>": 2369,
    "abortions</w>": 2370,
    "anced</w>": 2371,
    "sure</w>": 2372,
    "instit": 2373,
    "centr": 2374,
    "arms</w>": 2375,
    "charge</w>": 2376,
    "develop": 2377,
    "bring</w>": 2378,
    "dead</w>": 2379,
    "such</w>": 2380,
    "pati": 2381,
    "refused</w>": 2382,
    "mother</w>": 2383,
    "john": 2384,
    "irement</w>": 2385,
    "ific</w>": 2386,
    "justice</w>": 2387,
    "hun": 2388,
    "community</w>": 2389,
    "phone</w>": 2390,
    "hospital</w>": 2391,
    "committee</w>": 2392,
    "makes</w>": 2393,
    "fewer</w>": 2394,
    "sug": 2395,
    "atives</w>": 2396,
    "hard</w>": 2397,
    "ished</w>": 2398,
    "media</w>": 2399,
    "durante</w>": 2400,
    "wealth": 2401,
    "pañ": 2402,
    "dev": 2403,
    "sting</w>": 2404,
    "convic": 2405,
    "point</w>": 2406,
    "guar": 2407,
    "changed</w>": 2408,
    "mal": 2409,
    "weapons</w>": 2410,
    "different</w>": 2411,
    "roll</w>": 2412,
    "theres</w>": 2413,
    "doing</w>": 2414,
    "responsible</w>": 2415,
    "enforc": 2416,
    "ural</w>": 2417,
    "tem": 2418,
    "bre</w>": 2419,
    "double</w>": 2420,
    "struction</w>": 2421,
    "ias</w>": 2422,
    "worth</w>": 2423,
    "call</w>": 2424,
    "arm</w>": 2425,
    "chic": 2426,
    "refugees</w>": 2427,
    "open</w>": 2428,
    "–</w>": 2429,
    "roc": 2430,
    "docum": 2431,
    "ify</w>": 2432,
    "ash</w>": 2433,
    "aled</w>": 2434,
    "sell": 2435,
    "abb": 2436,
    "either</w>": 2437,
    "entos</w>": 2438,
    "150</w>": 2439,
    "exce": 2440,
    "shooting</w>": 2441,
    "development</w>": 2442,
    "prev": 2443,
    "director</w>": 2444,
    "oms</w>": 2445,
    "manufactur": 2446,
    "gra": 2447,
    "tried</w>": 2448,
    "ías</w>": 2449,
    "hurricane</w>": 2450,
    "effor": 2451,
    "interest</w>": 2452,
    "common</w>": 2453,
    "histor": 2454,
    "icide</w>": 2455,
    "doesnt</w>": 2456,
    "treat": 2457,
    "lobby": 2458,
    "changes</w>": 2459,
    "rema": 2460,
    "vention</w>": 2461,
    "nation": 2462,
    "mad": 2463,
    "afgh": 2464,
    "pet": 2465,
    "secre": 2466,
    "tras</w>": 2467,
    "pú": 2468,
    "currently</w>": 2469,
    "mas": 2470,
    "individual</w>": 2471,
    "attemp": 2472,
    "ness</w>": 2473,
    "vers</w>": 2474,
    "fight</w>": 2475,
    "polí": 2476,
    "públ": 2477,
    "apr": 2478,
    "almente</w>": 2479,
    "ily</w>": 2480,
    "lines</w>": 2481,
    "med</w>": 2482,
    "press</w>": 2483,
    "refer": 2484,
    "austr": 2485,
    "cat": 2486,
    "hac": 2487,
    "project</w>": 2488,
    "breaks</w>": 2489,
    "ob</w>": 2490,
    "turned</w>": 2491,
    "prin": 2492,
    "ium</w>": 2493,
    "personas</w>": 2494,
    "cro": 2495,
    "personal</w>": 2496,
    "extr": 2497,
    "é</w>": 2498,
    "receive</w>": 2499,
    "victims</w>": 2500,
    "tive</w>": 2501,
    "florid": 2502,
    "domest": 2503,
    "domestic</w>": 2504,
    "mel": 2505,
    "transportation</w>": 2506,
    "nine</w>": 2507,
    "previ": 2508,
    "canada</w>": 2509,
    "declar": 2510,
    "shut</w>": 2511,
    "minnes": 2512,
    "decision</w>": 2513,
    "28</w>": 2514,
    "early</w>": 2515,
    "ially</w>": 2516,
    "198": 2517,
    "compared</w>": 2518,
    "deli": 2519,
    "within</w>": 2520,
    "amount</w>": 2521,
    "itional</w>": 2522,
    "sem": 2523,
    "net": 2524,
    "foot": 2525,
    "corporate</w>": 2526,
    "termin": 2527,
    "nov": 2528,
    "sar": 2529,
    "leading</w>": 2530,
    "sponsor": 2531,
    "pho": 2532,
    "constitut": 2533,
    "ext": 2534,
    "ser</w>": 2535,
    "isra": 2536,
    "ama</w>": 2537,
    "really</w>": 2538,
    "alone</w>": 2539,
    "ern": 2540,
    "home": 2541,
    "capita</w>": 2542,
    "idence</w>": 2543,
    "percentage</w>": 2544,
    "indic": 2545,
    "í</w>": 2546,
    "fue</w>": 2547,
    "agreement</w>": 2548,
    "ena</w>": 2549,
    "oci": 2550,
    "tob": 2551,
    "purch": 2552,
    "dang": 2553,
    "spo": 2554,
    "zi</w>": 2555,
    "eas": 2556,
    "january</w>": 2557,
    "ys": 2558,
    "insu": 2559,
    "girl</w>": 2560,
    "issue</w>": 2561,
    "elections</w>": 2562,
    "independ": 2563,
    "stand</w>": 2564,
    "existing</w>": 2565,
    "95</w>": 2566,
    "held</w>": 2567,
    "ivo</w>": 2568,
    "acted</w>": 2569,
    "russian</w>": 2570,
    "popular</w>": 2571,
    "fiscal</w>": 2572,
    "inste": 2573,
    "ham</w>": 2574,
    "nomine": 2575,
    "charlie</w>": 2576,
    "yn": 2577,
    "reser": 2578,
    "savings</w>": 2579,
    "afghan": 2580,
    "afghanistan</w>": 2581,
    "author": 2582,
    "image</w>": 2583,
    "crimes</w>": 2584,
    "class": 2585,
    "ballot</w>": 2586,
    "sta</w>": 2587,
    "pension</w>": 2588,
    "assault</w>": 2589,
    "islamic</w>": 2590,
    "sist": 2591,
    "millones</w>": 2592,
    "deaths</w>": 2593,
    "ards</w>": 2594,
    "tos</w>": 2595,
    "succ": 2596,
    "nuev": 2597,
    "earth</w>": 2598,
    "ldn</w>": 2599,
    "ista</w>": 2600,
    "app": 2601,
    "favor</w>": 2602,
    "caused</w>": 2603,
    "pue": 2604,
    "districts</w>": 2605,
    "quarter</w>": 2606,
    "expen": 2607,
    "added</w>": 2608,
    "ee</w>": 2609,
    "files</w>": 2610,
    "pus": 2611,
    "país</w>": 2612,
    "illegally</w>": 2613,
    "tt": 2614,
    "autom": 2615,
    "ionaires</w>": 2616,
    "cir": 2617,
    "stam": 2618,
    "counties</w>": 2619,
    "outside</w>": 2620,
    "recently</w>": 2621,
    "didnt</w>": 2622,
    "michelle</w>": 2623,
    "sanc": 2624,
    "ii</w>": 2625,
    "politici": 2626,
    "manag": 2627,
    "sent": 2628,
    "pas": 2629,
    "follow": 2630,
    "ively</w>": 2631,
    "estab": 2632,
    "mental</w>": 2633,
    "bility</w>": 2634,
    "known</w>": 2635,
    "aling</w>": 2636,
    "goes</w>": 2637,
    "promised</w>": 2638,
    "risk</w>": 2639,
    "safe": 2640,
    "homes</w>": 2641,
    "leav": 2642,
    "dropped</w>": 2643,
    "ios</w>": 2644,
    "your": 2645,
    "tim</w>": 2646,
    "anos</w>": 2647,
    "actions</w>": 2648,
    "rat": 2649,
    "kin": 2650,
    "advoc": 2651,
    "ez": 2652,
    "sly</w>": 2653,
    "advis": 2654,
    "regulations</w>": 2655,
    "surplus</w>": 2656,
    "pra": 2657,
    "key</w>": 2658,
    "research</w>": 2659,
    "icial</w>": 2660,
    "dau": 2661,
    "moder": 2662,
    "relig": 2663,
    "poll</w>": 2664,
    "bank</w>": 2665,
    "hour</w>": 2666,
    "eron</w>": 2667,
    "bail": 2668,
    "them": 2669,
    "billions</w>": 2670,
    "crist</w>": 2671,
    "cover</w>": 2672,
    "ario</w>": 2673,
    "sold</w>": 2674,
    "recall</w>": 2675,
    "complet": 2676,
    "raci": 2677,
    "ption</w>": 2678,
    "lebr": 2679,
    "non": 2680,
    "face</w>": 2681,
    "pot": 2682,
    "hold</w>": 2683,
    "vera</w>": 2684,
    "premiums</w>": 2685,
    "johnson</w>": 2686,
    "gall": 2687,
    "entre</w>": 2688,
    "izing</w>": 2689,
    "mag": 2690,
    "means</w>": 2691,
    "terrorist</w>": 2692,
    "27</w>": 2693,
    "mig": 2694,
    "art": 2695,
    "42</w>": 2696,
    "erous</w>": 2697,
    "protect</w>": 2698,
    "point": 2699,
    "price</w>": 2700,
    "scre": 2701,
    "fif": 2702,
    "poor</w>": 2703,
    "worked</w>": 2704,
    "año</w>": 2705,
    "ands</w>": 2706,
    "includes</w>": 2707,
    "cra": 2708,
    "experience</w>": 2709,
    "doctors</w>": 2710,
    "anim": 2711,
    "porque</w>": 2712,
    "daugh": 2713,
    "his": 2714,
    "hispan": 2715,
    "illino": 2716,
    "illinois</w>": 2717,
    "chur": 2718,
    "health": 2719,
    "import": 2720,
    "sponsored</w>": 2721,
    "ading</w>": 2722,
    "bridge</w>": 2723,
    "will": 2724,
    "syr": 2725,
    "dog</w>": 2726,
    "orial</w>": 2727,
    "2000</w>": 2728,
    "destro": 2729,
    "control": 2730,
    "ko": 2731,
    "españ": 2732,
    "fully</w>": 2733,
    "icking</w>": 2734,
    "move</w>": 2735,
    "threat": 2736,
    "yet</w>": 2737,
    "vacuna</w>": 2738,
    "salud</w>": 2739,
    "shootings</w>": 2740,
    "adop": 2741,
    "stor": 2742,
    "mandate</w>": 2743,
    "fox</w>": 2744,
    "again</w>": 2745,
    "gi": 2746,
    "250</w>": 2747,
    "international</w>": 2748,
    "teen</w>": 2749,
    "web": 2750,
    "leaders</w>": 2751,
    "rules</w>": 2752,
    "enforcement</w>": 2753,
    "fli": 2754,
    "position</w>": 2755,
    "fl</w>": 2756,
    "minnesota</w>": 2757,
    "nancy</w>": 2758,
    "groups</w>": 2759,
    "carry</w>": 2760,
    "bipartisan</w>": 2761,
    "tan": 2762,
    "coal</w>": 2763,
    "fired</w>": 2764,
    "yed</w>": 2765,
    "team</w>": 2766,
    "anyone</w>": 2767,
    "warning</w>": 2768,
    "todo</w>": 2769,
    "franc": 2770,
    "below</w>": 2771,
    "ler</w>": 2772,
    "hab": 2773,
    "stop": 2774,
    "find</w>": 2775,
    "eld</w>": 2776,
    "send</w>": 2777,
    "required</w>": 2778,
    "clintons</w>": 2779,
    "yst": 2780,
    "dam": 2781,
    "extre": 2782,
    "ranks</w>": 2783,
    "lie": 2784,
    "tri": 2785,
    "ability</w>": 2786,
    "ounds</w>": 2787,
    "site</w>": 2788,
    "employed</w>": 2789,
    "wealth</w>": 2790,
    "investment</w>": 2791,
    "near</w>": 2792,
    "jef": 2793,
    "april</w>": 2794,
    "idades</w>": 2795,
    "wages</w>": 2796,
    "stra": 2797,
    "case</w>": 2798,
    "information</w>": 2799,
    "ute</w>": 2800,
    "crip": 2801,
    "online</w>": 2802,
    "vacc": 2803,
    "west": 2804,
    "ests</w>": 2805,
    "judge</w>": 2806,
    "mas</w>": 2807,
    "bank": 2808,
    "enough</w>": 2809,
    "saw</w>": 2810,
    "presidents</w>": 2811,
    "despite</w>": 2812,
    "presidente</w>": 2813,
    "rett</w>": 2814,
    "desde</w>": 2815,
    "brought</w>": 2816,
    "sea</w>": 2817,
    "kor": 2818,
    "agency</w>": 2819,
    "600</w>": 2820,
    "commer": 2821,
    "celebr": 2822,
    "privat": 2823,
    "saudi": 2824,
    "saudi</w>": 2825,
    "drilling</w>": 2826,
    "ern</w>": 2827,
    "ese</w>": 2828,
    "gol": 2829,
    "boo": 2830,
    "require</w>": 2831,
    "checks</w>": 2832,
    "pa</w>": 2833,
    "des</w>": 2834,
    "44</w>": 2835,
    "polític": 2836,
    "youre</w>": 2837,
    "constitutional</w>": 2838,
    "penn": 2839,
    "become</w>": 2840,
    "demia</w>": 2841,
    "ok": 2842,
    "staf": 2843,
    "ros</w>": 2844,
    "nest": 2845,
    "levels</w>": 2846,
    "undo</w>": 2847,
    "effect</w>": 2848,
    "beng": 2849,
    "bengha": 2850,
    "benghazi</w>": 2851,
    "work": 2852,
    "chall": 2853,
    "anne</w>": 2854,
    "ier</w>": 2855,
    "claimed</w>": 2856,
    "murder</w>": 2857,
    "idea</w>": 2858,
    "vol": 2859,
    "gender</w>": 2860,
    "estimated</w>": 2861,
    "holds</w>": 2862,
    "subsid": 2863,
    "story</w>": 2864,
    "someone</w>": 2865,
    "dela": 2866,
    "pelo": 2867,
    "post</w>": 2868,
    "clu": 2869,
    "cen": 2870,
    "uck</w>": 2871,
    "bob</w>": 2872,
    "exper": 2873,
    "aug": 2874,
    "allowing</w>": 2875,
    "implement": 2876,
    "ails</w>": 2877,
    "great": 2878,
    "must</w>": 2879,
    "leadership</w>": 2880,
    "immedi": 2881,
    "color": 2882,
    "29</w>": 2883,
    "promise</w>": 2884,
    "ían</w>": 2885,
    "built</w>": 2886,
    "civil</w>": 2887,
    "65</w>": 2888,
    "uals</w>": 2889,
    "ners</w>": 2890,
    "hay</w>": 2891,
    "ught</w>": 2892,
    "leader</w>": 2893,
    "staff</w>": 2894,
    "convention</w>": 2895,
    "holding</w>": 2896,
    "stri": 2897,
    "photo</w>": 2898,
    "nacional</w>": 2899,
    "unions</w>": 2900,
    "account</w>": 2901,
    "speaker</w>": 2902,
    "99</w>": 2903,
    "reported</w>": 2904,
    "ief</w>": 2905,
    "conservative</w>": 2906,
    "cn": 2907,
    "huge</w>": 2908,
    "closed</w>": 2909,
    "rise</w>": 2910,
    "sil": 2911,
    "something</w>": 2912,
    "yle</w>": 2913,
    "jail</w>": 2914,
    "internet</w>": 2915,
    "2007</w>": 2916,
    "book</w>": 2917,
    "pregn": 2918,
    "shor": 2919,
    "ets</w>": 2920,
    "capital</w>": 2921,
    "nur": 2922,
    "syria</w>": 2923,
    "acher</w>": 2924,
    "obl": 2925,
    "issued</w>": 2926,
    "polls</w>": 2927,
    "release</w>": 2928,
    "wealthy</w>": 2929,
    "países</w>": 2930,
    "cutting</w>": 2931,
    "nos</w>": 2932,
    "associ": 2933,
    "photographs</w>": 2934,
    "enda</w>": 2935,
    "enen</w>": 2936,
    "convicted</w>": 2937,
    "ola</w>": 2938,
    "constitution</w>": 2939,
    "mit</w>": 2940,
    "watch</w>": 2941,
    "stay</w>": 2942,
    "rac": 2943,
    "lead</w>": 2944,
    "scient": 2945,
    "umb": 2946,
    "commission</w>": 2947,
    "ran</w>": 2948,
    "officer</w>": 2949,
    "io": 2950,
    "alia</w>": 2951,
    "pract": 2952,
    "atory</w>": 2953,
    "evidence</w>": 2954,
    "itter</w>": 2955,
    "owners</w>": 2956,
    "47</w>": 2957,
    "promot": 2958,
    "pelosi</w>": 2959,
    "carb": 2960,
    "kind</w>": 2961,
    "involved</w>": 2962,
    "dig": 2963,
    "protesters</w>": 2964,
    "anything</w>": 2965,
    "liber": 2966,
    "prosec": 2967,
    "lawma": 2968,
    "eer</w>": 2969,
    "bankru": 2970,
    "endorsed</w>": 2971,
    "istas</w>": 2972,
    "unci": 2973,
    "ex</w>": 2974,
    "tes</w>": 2975,
    "fig": 2976,
    "words</w>": 2977,
    "din": 2978,
    "secret</w>": 2979,
    "why</w>": 2980,
    "open": 2981,
    "cust": 2982,
    "ports</w>": 2983,
    "turn</w>": 2984,
    "cannot</w>": 2985,
    "earing</w>": 2986,
    "ej": 2987,
    "ances</w>": 2988,
    "november</w>": 2989,
    "amiento</w>": 2990,
    "orig": 2991,
    "particip": 2992,
    "served</w>": 2993,
    "caught</w>": 2994,
    "rod</w>": 2995,
    "cab": 2996,
    "teacher</w>": 2997,
    "func": 2998,
    "father</w>": 2999,
    "murd": 3000,
    "wil": 3001,
    "exemp": 3002,
    "va</w>": 3003,
    "rest</w>": 3004,
    "conditions</w>": 3005,
    "toge": 3006,
    "together</w>": 3007,
    "ak</w>": 3008,
    "abo": 3009,
    "several</w>": 3010,
    "48</w>": 3011,
    "citizen": 3012,
    "veh": 3013,
    "happ": 3014,
    "liberal</w>": 3015,
    "sat": 3016,
    "dangerous</w>": 3017,
    "fut": 3018,
    "brit": 3019,
    "head": 3020,
    "ded</w>": 3021,
    "banned</w>": 3022,
    "ole</w>": 3023,
    "resp": 3024,
    "theyre</w>": 3025,
    "mexic": 3026,
    "alter": 3027,
    "decreas": 3028,
    "inclu": 3029,
    "jeff</w>": 3030,
    "employee</w>": 3031,
    "flo": 3032,
    "sept": 3033,
    "additional</w>": 3034,
    "citizenship</w>": 3035,
    "ont</w>": 3036,
    "projects</w>": 3037,
    "trat": 3038,
    "prec": 3039,
    "immigrant</w>": 3040,
    "down": 3041,
    "star</w>": 3042,
    "dp</w>": 3043,
    "add</w>": 3044,
    "tly</w>": 3045,
    "chem": 3046,
    "undoc": 3047,
    "undocum": 3048,
    "undocumented</w>": 3049,
    "approved</w>": 3050,
    "ionales</w>": 3051,
    "mer</w>": 3052,
    "lam": 3053,
    "natural</w>": 3054,
    "happen": 3055,
    "iff</w>": 3056,
    "stopped</w>": 3057,
    "ously</w>": 3058,
    "female</w>": 3059,
    "investigation</w>": 3060,
    "tell</w>": 3061,
    "mundo</w>": 3062,
    "july</w>": 3063,
    "cros": 3064,
    "miles</w>": 3065,
    "gdp</w>": 3066,
    "eth": 3067,
    "assem": 3068,
    "insured</w>": 3069,
    "product</w>": 3070,
    "construction</w>": 3071,
    "hes</w>": 3072,
    "ouch": 3073,
    "init": 3074,
    "na</w>": 3075,
    "him": 3076,
    "nelson</w>": 3077,
    "god</w>": 3078,
    "twitter</w>": 3079,
    "langu": 3080,
    "patrick</w>": 3081,
    "contributions</w>": 3082,
    "millionaires</w>": 3083,
    "soldi": 3084,
    "rif": 3085,
    "licen": 3086,
    "killing</w>": 3087,
    "ga</w>": 3088,
    "couple</w>": 3089,
    "alized</w>": 3090,
    "conta": 3091,
    "bom": 3092,
    "size</w>": 3093,
    "pip": 3094,
    "selves</w>": 3095,
    "break</w>": 3096,
    "replac": 3097,
    "wer": 3098,
    "sugge": 3099,
    "annual</w>": 3100,
    "grown</w>": 3101,
    "households</w>": 3102,
    "expans": 3103,
    "choice</w>": 3104,
    "emer": 3105,
    "core</w>": 3106,
    "buc": 3107,
    "profit</w>": 3108,
    "virt": 3109,
    "studi": 3110,
    "ilities</w>": 3111,
    "cars</w>": 3112,
    "ford</w>": 3113,
    "aliens</w>": 3114,
    "acking</w>": 3115,
    "willi": 3116,
    "ba</w>": 3117,
    "campaig": 3118,
    "career</w>": 3119,
    "encies</w>": 3120,
    "retirement</w>": 3121,
    "ez</w>": 3122,
    "biden</w>": 3123,
    "emergen": 3124,
    "based</w>": 3125,
    "driving</w>": 3126,
    "provided</w>": 3127,
    "2006</w>": 3128,
    "enta</w>": 3129,
    "takes</w>": 3130,
    "governors</w>": 3131,
    "probab": 3132,
    "ator": 3133,
    "israel</w>": 3134,
    "weeks</w>": 3135,
    "compl": 3136,
    "cap</w>": 3137,
    "nominee</w>": 3138,
    "vo": 3139,
    "sherrod</w>": 3140,
    "envir": 3141,
    "environ": 3142,
    "deduc": 3143,
    "moving</w>": 3144,
    "true</w>": 3145,
    "amos</w>": 3146,
    "ession</w>": 3147,
    "himself</w>": 3148,
    "cant</w>": 3149,
    "pers</w>": 3150,
    "chief</w>": 3151,
    "ped": 3152,
    "úl": 3153,
    "ots</w>": 3154,
    "ece</w>": 3155,
    "amnest": 3156,
    "amnesty</w>": 3157,
    "data</w>": 3158,
    "safe</w>": 3159,
    "terrorism</w>": 3160,
    "ares</w>": 3161,
    "corporations</w>": 3162,
    "38</w>": 3163,
    "wood</w>": 3164,
    "conce": 3165,
    "multi": 3166,
    "&</w>": 3167,
    "bureau": 3168,
    "expand": 3169,
    "marks</w>": 3170,
    "communities</w>": 3171,
    "ll</w>": 3172,
    "super</w>": 3173,
    "hed</w>": 3174,
    "datos</w>": 3175,
    "expansion</w>": 3176,
    "36</w>": 3177,
    "íf": 3178,
    "pandemia</w>": 3179,
    "ips</w>": 3180,
    "perform": 3181,
    "uck": 3182,
    "much": 3183,
    "problem</w>": 3184,
    "read</w>": 3185,
    "creating</w>": 3186,
    "farm": 3187,
    "ye</w>": 3188,
    "needs</w>": 3189,
    "barg": 3190,
    "ste</w>": 3191,
    "interview</w>": 3192,
    "restric": 3193,
    "erto</w>": 3194,
    "traffic</w>": 3195,
    "christian</w>": 3196,
    "ceo</w>": 3197,
    "vill": 3198,
    "cast</w>": 3199,
    "products</w>": 3200,
    "rid": 3201,
    "balance</w>": 3202,
    "cham": 3203,
    "10": 3204,
    "email</w>": 3205,
    "lawsu": 3206,
    "wou": 3207,
    "intro": 3208,
    "portun": 3209,
    "hamp": 3210,
    "jeb</w>": 3211,
    "ió</w>": 3212,
    "antly</w>": 3213,
    "plant</w>": 3214,
    "housing</w>": 3215,
    "decades</w>": 3216,
    "independent</w>": 3217,
    "carbon</w>": 3218,
    "orders</w>": 3219,
    "mart</w>": 3220,
    "related</w>": 3221,
    "houston</w>": 3222,
    "fees</w>": 3223,
    "stood</w>": 3224,
    "pic": 3225,
    "portland</w>": 3226,
    "night</w>": 3227,
    "últim": 3228,
    "park</w>": 3229,
    "spir": 3230,
    "hampsh": 3231,
    "everyone</w>": 3232,
    "share</w>": 3233,
    "nun": 3234,
    "supporting</w>": 3235,
    "negot": 3236,
    "negoti": 3237,
    "ination</w>": 3238,
    "stoc": 3239,
    "estudi": 3240,
    "les": 3241,
    "football</w>": 3242,
    "warren</w>": 3243,
    "lun": 3244,
    "oughly</w>": 3245,
    "41</w>": 3246,
    "icul": 3247,
    "instead</w>": 3248,
    "det": 3249,
    "arabia</w>": 3250,
    "christmas</w>": 3251,
    "lawmakers</w>": 3252,
    "enders</w>": 3253,
    "deta": 3254,
    "princi": 3255,
    "ples</w>": 3256,
    "ano</w>": 3257,
    "language</w>": 3258,
    "sun": 3259,
    "ches</w>": 3260,
    "ging</w>": 3261,
    "syri": 3262,
    "offered</w>": 3263,
    "cada</w>": 3264,
    "ces</w>": 3265,
    "rob</w>": 3266,
    "mos": 3267,
    "broke</w>": 3268,
    "warming</w>": 3269,
    "hasta</w>": 3270,
    "issues</w>": 3271,
    "start</w>": 3272,
    "perman": 3273,
    "dan</w>": 3274,
    "comple": 3275,
    "safety</w>": 3276,
    "ordered</w>": 3277,
    "seas</w>": 3278,
    "ison</w>": 3279,
    "actor</w>": 3280,
    "themselves</w>": 3281,
    "gives</w>": 3282,
    "event</w>": 3283,
    "nec": 3284,
    "mitted</w>": 3285,
    "197": 3286,
    "spends</w>": 3287,
    "reason</w>": 3288,
    "balanced</w>": 3289,
    "youth</w>": 3290,
    "always</w>": 3291,
    "nar": 3292,
    "rica</w>": 3293,
    "dise": 3294,
    "ecting</w>": 3295,
    "hampshire</w>": 3296,
    "address</w>": 3297,
    "six": 3298,
    "aj": 3299,
    "missour": 3300,
    "growing</w>": 3301,
    "vey</w>": 3302,
    "arly</w>": 3303,
    "micha": 3304,
    "michael</w>": 3305,
    "gas": 3306,
    "lets</w>": 3307,
    "significant</w>": 3308,
    "bargaining</w>": 3309,
    "western</w>": 3310,
    "thern</w>": 3311,
    "individuals</w>": 3312,
    "manufacturing</w>": 3313,
    "roughly</w>": 3314,
    "adores</w>": 3315,
    "begin": 3316,
    "option</w>": 3317,
    "chair": 3318,
    "recovery</w>": 3319,
    "assembly</w>": 3320,
    "hib": 3321,
    "chicago</w>": 3322,
    "matter</w>": 3323,
    "shut": 3324,
    "harry</w>": 3325,
    "senior</w>": 3326,
    "ints</w>": 3327,
    "clear</w>": 3328,
    "muer": 3329,
    "espec": 3330,
    "neigh": 3331,
    "comun": 3332,
    "rating</w>": 3333,
    "2003</w>": 3334,
    "looking</w>": 3335,
    "september</w>": 3336,
    "drin": 3337,
    "todos</w>": 3338,
    "above</w>": 3339,
    "aur": 3340,
    "threaten": 3341,
    "ection</w>": 3342,
    "bad</w>": 3343,
    "ben</w>": 3344,
    "eso</w>": 3345,
    "aska</w>": 3346,
    "period</w>": 3347,
    "rober": 3348,
    "solut": 3349,
    "sarah</w>": 3350,
    "calls</w>": 3351,
    "church</w>": 3352,
    "appoint": 3353,
    "legislative</w>": 3354,
    "isions</w>": 3355,
    "presidency</w>": 3356,
    "outs</w>": 3357,
    "ricul": 3358,
    "ox": 3359,
    "hit</w>": 3360,
    "eland</w>": 3361,
    "dre": 3362,
    "despu": 3363,
    "después</w>": 3364,
    "aria</w>": 3365,
    "bles</w>": 3366,
    "solar</w>": 3367,
    "nob": 3368,
    "auto</w>": 3369,
    "opportun": 3370,
    "ements</w>": 3371,
    "discovered</w>": 3372,
    "syrian</w>": 3373,
    "suicide</w>": 3374,
    "center</w>": 3375,
    "ils</w>": 3376,
    "tery</w>": 3377,
    "statist": 3378,
    "grade</w>": 3379,
    "colorado</w>": 3380,
    "prayer</w>": 3381,
    "virtually</w>": 3382,
    "2020</w>": 3383,
    "earn</w>": 3384,
    "thom": 3385,
    "68</w>": 3386,
    "itive</w>": 3387,
    "fall</w>": 3388,
    "multiple</w>": 3389,
    "boy</w>": 3390,
    "wife</w>": 3391,
    "chine": 3392,
    "chinese</w>": 3393,
    "plane</w>": 3394,
    "mir": 3395,
    "overseas</w>": 3396,
    "ains</w>": 3397,
    "emails</w>": 3398,
    "space</w>": 3399,
    "iring</w>": 3400,
    "sha": 3401,
    "official</w>": 3402,
    "posed</w>": 3403,
    "records</w>": 3404,
    "introduc": 3405,
    "typ": 3406,
    "fat": 3407,
    "lad": 3408,
    "reserve</w>": 3409,
    "cuando</w>": 3410,
    "ained</w>": 3411,
    "cin": 3412,
    "ental</w>": 3413,
    "hus": 3414,
    "graduation</w>": 3415,
    "hispanic</w>": 3416,
    "benefit</w>": 3417,
    "probably</w>": 3418,
    "registered</w>": 3419,
    "gan</w>": 3420,
    "qual": 3421,
    "bureaucr": 3422,
    "*</w>": 3423,
    "hace</w>": 3424,
    "elector": 3425,
    "mee": 3426,
    "captu": 3427,
    "pag": 3428,
    "leaving</w>": 3429,
    "solo</w>": 3430,
    "electric": 3431,
    "estate</w>": 3432,
    "enfer": 3433,
    "date</w>": 3434,
    "oot</w>": 3435,
    "ami</w>": 3436,
    "icas</w>": 3437,
    "establ": 3438,
    "37</w>": 3439,
    "¿</w>": 3440,
    "explo": 3441,
    "vert": 3442,
    "impact</w>": 3443,
    "iva</w>": 3444,
    "feder": 3445,
    "missouri</w>": 3446,
    "field</w>": 3447,
    "pays</w>": 3448,
    "atic</w>": 3449,
    "daughter</w>": 3450,
    "messa": 3451,
    "pled": 3452,
    "revenues</w>": 3453,
    "phil": 3454,
    "was": 3455,
    "edly</w>": 3456,
    "eth</w>": 3457,
    "eric</w>": 3458,
    "eline</w>": 3459,
    "melania</w>": 3460,
    "canad": 3461,
    "senators</w>": 3462,
    "crib": 3463,
    "losing</w>": 3464,
    "ining</w>": 3465,
    "eliminate</w>": 3466,
    "committed</w>": 3467,
    "ured</w>": 3468,
    "rail</w>": 3469,
    "xico</w>": 3470,
    "ites</w>": 3471,
    "michig": 3472,
    "tech": 3473,
    "code</w>": 3474,
    "table</w>": 3475,
    "session</w>": 3476,
    "ciud": 3477,
    "measure</w>": 3478,
    "tienen</w>": 3479,
    "ems</w>": 3480,
    "tv</w>": 3481,
    "thanks</w>": 3482,
    "cash</w>": 3483,
    "organization</w>": 3484,
    "discrimin": 3485,
    "standards</w>": 3486,
    "ray</w>": 3487,
    "success": 3488,
    "aum": 3489,
    "ivers</w>": 3490,
    "serving</w>": 3491,
    "repeal</w>": 3492,
    "putin</w>": 3493,
    "bailout</w>": 3494,
    "salaries</w>": 3495,
    "acting</w>": 3496,
    "might</w>": 3497,
    "pp": 3498,
    "recession</w>": 3499,
    "méxico</w>": 3500,
    "parts</w>": 3501,
    "points</w>": 3502,
    "kain": 3503,
    "michigan</w>": 3504,
    "later</w>": 3505,
    "restaur": 3506,
    "doctor</w>": 3507,
    "possible</w>": 3508,
    "standing</w>": 3509,
    "agenda</w>": 3510,
    "origin": 3511,
    "consu": 3512,
    "enced</w>": 3513,
    "elect</w>": 3514,
    "ident</w>": 3515,
    "firefigh": 3516,
    "steve</w>": 3517,
    "emergency</w>": 3518,
    "choo": 3519,
    "26</w>": 3520,
    "43</w>": 3521,
    "card</w>": 3522,
    "quality</w>": 3523,
    "banks</w>": 3524,
    "friends</w>": 3525,
    "kas": 3526,
    "budgets</w>": 3527,
    "previous</w>": 3528,
    "equal</w>": 3529,
    "kaine</w>": 3530,
    "com</w>": 3531,
    "phy</w>": 3532,
    "grand": 3533,
    "road</w>": 3534,
    "custom": 3535,
    "én</w>": 3536,
    "authority</w>": 3537,
    "army</w>": 3538,
    "sistem": 3539,
    "utes</w>": 3540,
    "blo": 3541,
    "predic": 3542,
    "corru": 3543,
    "qa": 3544,
    "iday</w>": 3545,
    "lobbyist</w>": 3546,
    "bottom</w>": 3547,
    "ring</w>": 3548,
    "agu": 3549,
    "ka": 3550,
    "along</w>": 3551,
    "hospitals</w>": 3552,
    "weet</w>": 3553,
    "intell": 3554,
    "2001</w>": 3555,
    "following</w>": 3556,
    "reve": 3557,
    "hid": 3558,
    "doz": 3559,
    "uninsured</w>": 3560,
    "stron": 3561,
    "trafficking</w>": 3562,
    "vice</w>": 3563,
    "pack": 3564,
    "immediately</w>": 3565,
    "dial</w>": 3566,
    "tico</w>": 3567,
    "how": 3568,
    "drop</w>": 3569,
    "representatives</w>": 3570,
    "bed</w>": 3571,
    "barrett</w>": 3572,
    "wiscon": 3573,
    "wisconsin": 3574,
    "adul": 3575,
    "appear": 3576,
    "varios</w>": 3577,
    "thinks</w>": 3578,
    "administr": 3579,
    "vehic": 3580,
    "gallon</w>": 3581,
    "nolog": 3582,
    "octob": 3583,
    "october</w>": 3584,
    "distr": 3585,
    "drugs</w>": 3586,
    "emis": 3587,
    "attacked</w>": 3588,
    "54</w>": 3589,
    "sis</w>": 3590,
    "showing</w>": 3591,
    "nev": 3592,
    "green</w>": 3593,
    "nav": 3594,
    "began</w>": 3595,
    "patients</w>": 3596,
    "breaking</w>": 3597,
    "tion": 3598,
    "rid</w>": 3599,
    "salary</w>": 3600,
    "ciones</w>": 3601,
    "palin</w>": 3602,
    "ens": 3603,
    "subst": 3604,
    "prevent</w>": 3605,
    "thirds</w>": 3606,
    "rob": 3607,
    "icia</w>": 3608,
    "arg": 3609,
    "econó": 3610,
    "ise</w>": 3611,
    "collective</w>": 3612,
    "ade": 3613,
    "area</w>": 3614,
    "iling</w>": 3615,
    "relie": 3616,
    "ot</w>": 3617,
    "empres": 3618,
    "james</w>": 3619,
    "choose</w>": 3620,
    "politicians</w>": 3621,
    "feing": 3622,
    "floridians</w>": 3623,
    "draw": 3624,
    "55</w>": 3625,
    "guarant": 3626,
    "rule</w>": 3627,
    "sandy</w>": 3628,
    "infra": 3629,
    "vacunas</w>": 3630,
    "coast</w>": 3631,
    "anybody</w>": 3632,
    "quot": 3633,
    "floo": 3634,
    "33</w>": 3635,
    "stamps</w>": 3636,
    "protest</w>": 3637,
    "iff": 3638,
    "febr": 3639,
    "protection</w>": 3640,
    "training</w>": 3641,
    "iv</w>": 3642,
    "word</w>": 3643,
    "challen": 3644,
    "supporters</w>": 3645,
    "beginning</w>": 3646,
    "eles</w>": 3647,
    "ycl": 3648,
    "sons</w>": 3649,
    "relief</w>": 3650,
    "conduc": 3651,
    "feingold</w>": 3652,
    "agricul": 3653,
    "forms</w>": 3654,
    "yn</w>": 3655,
    "raises</w>": 3656,
    "tol": 3657,
    "prohib": 3658,
    "estos</w>": 3659,
    "talking</w>": 3660,
    "ched</w>": 3661,
    "estas</w>": 3662,
    "hy": 3663,
    "greater</w>": 3664,
    "charges</w>": 3665,
    "poc": 3666,
    "koch</w>": 3667,
    "firearms</w>": 3668,
    "efforts</w>": 3669,
    "yes</w>": 3670,
    "needed</w>": 3671,
    "98</w>": 3672,
    "penal": 3673,
    "absolut": 3674,
    "ith</w>": 3675,
    "guard</w>": 3676,
    "list": 3677,
    "camer": 3678,
    "jap": 3679,
    "tiene</w>": 3680,
    "selling</w>": 3681,
    "avail": 3682,
    "uso</w>": 3683,
    "nevada</w>": 3684,
    "late</w>": 3685,
    "dogs</w>": 3686,
    "ean</w>": 3687,
    "disabled</w>": 3688,
    "abbott</w>": 3689,
    "ato</w>": 3690,
    "opposes</w>": 3691,
    "mary</w>": 3692,
    "overall</w>": 3693,
    "vouch": 3694,
    "agencies</w>": 3695,
    "ov": 3696,
    "trad": 3697,
    "roads</w>": 3698,
    "payroll</w>": 3699,
    "idas</w>": 3700,
    "else</w>": 3701,
    "ching</w>": 3702,
    "caus": 3703,
    "ody</w>": 3704,
    "murphy</w>": 3705,
    "becom": 3706,
    "cnn</w>": 3707,
    "borrow": 3708,
    "ilar</w>": 3709,
    "esa</w>": 3710,
    "jul": 3711,
    "pin": 3712,
    "stock</w>": 3713,
    "átic": 3714,
    "nfl</w>": 3715,
    "conoc": 3716,
    "eigh": 3717,
    "mort": 3718,
    "mayor": 3719,
    "31</w>": 3720,
    "meet</w>": 3721,
    "religious</w>": 3722,
    "brand</w>": 3723,
    "providence</w>": 3724,
    "lou": 3725,
    "hora</w>": 3726,
    "identific": 3727,
    "bol": 3728,
    "iest</w>": 3729,
    "separ": 3730,
    "structure</w>": 3731,
    "hand</w>": 3732,
    "wrong</w>": 3733,
    "sn": 3734,
    "reports</w>": 3735,
    "miami</w>": 3736,
    "east</w>": 3737,
    "shore</w>": 3738,
    "dwin</w>": 3739,
    "approxim": 3740,
    "approximately</w>": 3741,
    "conf": 3742,
    "remove</w>": 3743,
    "increasing</w>": 3744,
    "train</w>": 3745,
    "migr": 3746,
    "smo": 3747,
    "enty</w>": 3748,
    "gotten</w>": 3749,
    "korea</w>": 3750,
    "kland</w>": 3751,
    "green": 3752,
    "assist": 3753,
    "step</w>": 3754,
    "alaska</w>": 3755,
    "dad</w>": 3756,
    "legaliz": 3757,
    "moved</w>": 3758,
    "simply</w>": 3759,
    "central</w>": 3760,
    "treatment</w>": 3761,
    "centers</w>": 3762,
    "asa</w>": 3763,
    "deciding</w>": 3764,
    "34</w>": 3765,
    "sci": 3766,
    "healthcare</w>": 3767,
    "tod": 3768,
    "electricity</w>": 3769,
    "future</w>": 3770,
    "eliz": 3771,
    "elizab": 3772,
    "elizabeth</w>": 3773,
    "bay</w>": 3774,
    "provides</w>": 3775,
    "anal": 3776,
    "49</w>": 3777,
    "mant": 3778,
    "pup": 3779,
    "dies</w>": 3780,
    "ences</w>": 3781,
    "j</w>": 3782,
    "mom": 3783,
    "ivos</w>": 3784,
    "achiev": 3785,
    "pacific</w>": 3786,
    "baldwin</w>": 3787,
    "cum": 3788,
    "pasa": 3789,
    "fighting</w>": 3790,
    "lee</w>": 3791,
    "writ": 3792,
    "kets</w>": 3793,
    "xed</w>": 3794,
    "ells</w>": 3795,
    "users</w>": 3796,
    "available</w>": 3797,
    "acts</w>": 3798,
    "demand": 3799,
    "hands</w>": 3800,
    "fur": 3801,
    "preh": 3802,
    "russ</w>": 3803,
    "drive</w>": 3804,
    "pipeline</w>": 3805,
    "ram": 3806,
    "australia</w>": 3807,
    "treas": 3808,
    "mundial</w>": 3809,
    "process</w>": 3810,
    "plants</w>": 3811,
    "arse</w>": 3812,
    "carri": 3813,
    "babies</w>": 3814,
    "track</w>": 3815,
    "production</w>": 3816,
    "introduced</w>": 3817,
    "employers</w>": 3818,
    "native</w>": 3819,
    "europe": 3820,
    "tammy</w>": 3821,
    "neighbor": 3822,
    "vlad": 3823,
    "wed": 3824,
    "ita</w>": 3825,
    "game</w>": 3826,
    "are": 3827,
    "limit</w>": 3828,
    "ac</w>": 3829,
    "mission</w>": 3830,
    "though</w>": 3831,
    "lot": 3832,
    "que": 3833,
    "aler": 3834,
    "stores</w>": 3835,
    "ura</w>": 3836,
    "resour": 3837,
    "jan</w>": 3838,
    "distribu": 3839,
    "inj": 3840,
    "hearing</w>": 3841,
    "disease</w>": 3842,
    "what": 3843,
    "profits</w>": 3844,
    "sell</w>": 3845,
    "science</w>": 3846,
    "mortal": 3847,
    "target</w>": 3848,
    "intellig": 3849,
    "entially</w>": 3850,
    "reach": 3851,
    "avo": 3852,
    "au</w>": 3853,
    "earned</w>": 3854,
    "mean": 3855,
    "median</w>": 3856,
    "finance</w>": 3857,
    "management</w>": 3858,
    "hs</w>": 3859,
    "improv": 3860,
    "homeless</w>": 3861,
    "ismo</w>": 3862,
    "sta": 3863,
    "hot": 3864,
    "vor": 3865,
    "nobody</w>": 3866,
    "attle</w>": 3867,
    "feat": 3868,
    "repa": 3869,
    "returns</w>": 3870,
    "ará</w>": 3871,
    "92</w>": 3872,
    "vladim": 3873,
    "vladimir</w>": 3874,
    "jason</w>": 3875,
    "deficits</w>": 3876,
    "embar": 3877,
    "ldnt</w>": 3878,
    "augu": 3879,
    "missing</w>": 3880,
    "stad": 3881,
    "dist": 3882,
    "itor</w>": 3883,
    "gro": 3884,
    "paper</w>": 3885,
    "studies</w>": 3886,
    "mart": 3887,
    "places</w>": 3888,
    "etings</w>": 3889,
    "85</w>": 3890,
    "forty</w>": 3891,
    "farm</w>": 3892,
    "viv": 3893,
    "everybody</w>": 3894,
    "eligible</w>": 3895,
    "mail</w>": 3896,
    "nel</w>": 3897,
    "información</w>": 3898,
    "alidad</w>": 3899,
    "gran": 3900,
    "sion": 3901,
    "fought</w>": 3902,
    "ordin": 3903,
    "allen</w>": 3904,
    "ime</w>": 3905,
    "enfermed": 3906,
    "menos</w>": 3907,
    "dó": 3908,
    "pun": 3909,
    "casos</w>": 3910,
    "schem": 3911,
    "trib": 3912,
    "acu": 3913,
    "suff": 3914,
    "serious</w>": 3915,
    "pence</w>": 3916,
    "report": 3917,
    "ofici": 3918,
    "determin": 3919,
    "false</w>": 3920,
    "aut": 3921,
    "scand": 3922,
    "pil": 3923,
    "driver</w>": 3924,
    "berg</w>": 3925,
    "alleg": 3926,
    "neys</w>": 3927,
    "alco": 3928,
    "occur": 3929,
    "return</w>": 3930,
    "vegas</w>": 3931,
    "easier</w>": 3932,
    "tens</w>": 3933,
    "hole</w>": 3934,
    "turn": 3935,
    "meeting</w>": 3936,
    "land": 3937,
    "employer</w>": 3938,
    "household</w>": 3939,
    "four": 3940,
    "lawsuit</w>": 3941,
    "backed</w>": 3942,
    "em</w>": 3943,
    "plat": 3944,
    "developed</w>": 3945,
    "htt": 3946,
    "adults</w>": 3947,
    "amé": 3948,
    "bath": 3949,
    "cup": 3950,
    "colom": 3951,
    "kat": 3952,
    "compet": 3953,
    "demon": 3954,
    "significantly</w>": 3955,
    "condition</w>": 3956,
    "believ": 3957,
    "august</w>": 3958,
    "compu": 3959,
    "rally</w>": 3960,
    "causing</w>": 3961,
    "os": 3962,
    "científ": 3963,
    "desar": 3964,
    "desarrol": 3965,
    "ym": 3966,
    "threat</w>": 3967,
    "strong</w>": 3968,
    "play</w>": 3969,
    "waste</w>": 3970,
    "modern</w>": 3971,
    "post": 3972,
    "workforce</w>": 3973,
    "encias</w>": 3974,
    "martin</w>": 3975,
    "tweet</w>": 3976,
    "continue</w>": 3977,
    "universities</w>": 3978,
    "loans</w>": 3979,
    "owned</w>": 3980,
    "pot</w>": 3981,
    "có": 3982,
    "iny</w>": 3983,
    "clean</w>": 3984,
    "tro</w>": 3985,
    "door</w>": 3986,
    "liter": 3987,
    "annually</w>": 3988,
    "recipi": 3989,
    "correc": 3990,
    "effective</w>": 3991,
    "cell</w>": 3992,
    "sharia</w>": 3993,
    "sale</w>": 3994,
    "versi": 3995,
    "nc</w>": 3996,
    "governments</w>": 3997,
    "count</w>": 3998,
    "ición</w>": 3999,
    "alex</w>": 4000,
    "mov": 4001,
    "typical</w>": 4002,
    "icid": 4003,
    "sanit": 4004,
    "cus": 4005,
    "roy</w>": 4006,
    "ject</w>": 4007,
    "nuest": 4008,
    "lots</w>": 4009,
    "circul": 4010,
    "oned</w>": 4011,
    "accused</w>": 4012,
    "err": 4013,
    "ask</w>": 4014,
    "depic": 4015,
    "girls</w>": 4016,
    "qué</w>": 4017,
    "inos</w>": 4018,
    "puede</w>": 4019,
    "absolutely</w>": 4020,
    "atically</w>": 4021,
    "gg": 4022,
    "armed</w>": 4023,
    "offenders</w>": 4024,
    "meetings</w>": 4025,
    "accounts</w>": 4026,
    "state": 4027,
    "racist</w>": 4028,
    "kl": 4029,
    "jack</w>": 4030,
    "médic": 4031,
    "allows</w>": 4032,
    "wea": 4033,
    "pping</w>": 4034,
    "keyst": 4035,
    "requires</w>": 4036,
    "grew</w>": 4037,
    "loan</w>": 4038,
    "replace</w>": 4039,
    "airport</w>": 4040,
    "reid</w>": 4041,
    "critic": 4042,
    "princip": 4043,
    "pick</w>": 4044,
    "richard</w>": 4045,
    "ander</w>": 4046,
    "brothers</w>": 4047,
    "américa</w>": 4048,
    "flip</w>": 4049,
    "drun": 4050,
    "naf": 4051,
    "nafta</w>": 4052,
    "testing</w>": 4053,
    "similar</w>": 4054,
    "twenty</w>": 4055,
    "happen</w>": 4056,
    "schol": 4057,
    "scholar": 4058,
    "gasol": 4059,
    "seat</w>": 4060,
    "artif": 4061,
    "imiento</w>": 4062,
    "band</w>": 4063,
    "preced": 4064,
    "receiving</w>": 4065,
    "ensive</w>": 4066,
    "lincol": 4067,
    "lincoln</w>": 4068,
    "century</w>": 4069,
    "burg</w>": 4070,
    "intelligence</w>": 4071,
    "chemical</w>": 4072,
    "owns</w>": 4073,
    "ags</w>": 4074,
    "completely</w>": 4075,
    "greg</w>": 4076,
    "terror</w>": 4077,
    "shel": 4078,
    "reduction</w>": 4079,
    "quarters</w>": 4080,
    "uel": 4081,
    "decided</w>": 4082,
    "earmarks</w>": 4083,
    "kept</w>": 4084,
    "han": 4085,
    "walk</w>": 4086,
    "arding</w>": 4087,
    "lement</w>": 4088,
    "sink</w>": 4089,
    "1990</w>": 4090,
    "saving</w>": 4091,
    "transgender</w>": 4092,
    "basic</w>": 4093,
    "criminals</w>": 4094,
    "aseg": 4095,
    "sido</w>": 4096,
    "veto": 4097,
    "jun": 4098,
    "erson</w>": 4099,
    "costing</w>": 4100,
    "fle": 4101,
    "travel</w>": 4102,
    "sad": 4103,
    "scandal</w>": 4104,
    "revol": 4105,
    "tas</w>": 4106,
    "radical</w>": 4107,
    "talk</w>": 4108,
    "deny</w>": 4109,
    "62</w>": 4110,
    "nal</w>": 4111,
    "anywhere</w>": 4112,
    "soros</w>": 4113,
    "bible</w>": 4114,
    "ethics</w>": 4115,
    "drivers</w>": 4116,
    "adm": 4117,
    "oph": 4118,
    "puerto</w>": 4119,
    "redes</w>": 4120,
    "reducing</w>": 4121,
    "dying</w>": 4122,
    "tit": 4123,
    "fallen</w>": 4124,
    "discre": 4125,
    "swit": 4126,
    "directly</w>": 4127,
    "eping</w>": 4128,
    "package</w>": 4129,
    "texans</w>": 4130,
    "ket": 4131,
    "neces": 4132,
    "actual</w>": 4133,
    "protections</w>": 4134,
    "calling</w>": 4135,
    "serve</w>": 4136,
    "produce</w>": 4137,
    "offshore</w>": 4138,
    "include</w>": 4139,
    "parks</w>": 4140,
    "dif": 4141,
    "forward</w>": 4142,
    "podr": 4143,
    "posing</w>": 4144,
    "ingly</w>": 4145,
    "england</w>": 4146,
    "equiv": 4147,
    "clin": 4148,
    "homo": 4149,
    "hunting</w>": 4150,
    "scheme</w>": 4151,
    "direct</w>": 4152,
    "ador</w>": 4153,
    "rene": 4154,
    "basically</w>": 4155,
    "indiana</w>": 4156,
    "enacted</w>": 4157,
    "feet</w>": 4158,
    "agreed</w>": 4159,
    "sociales</w>": 4160,
    "ña</w>": 4161,
    "contag": 4162,
    "prepar": 4163,
    "removed</w>": 4164,
    "muest": 4165,
    "clus": 4166,
    "cape</w>": 4167,
    "electric</w>": 4168,
    "effort</w>": 4169,
    "mortg": 4170,
    "pope</w>": 4171,
    "alist</w>": 4172,
    "gul": 4173,
    "appropri": 4174,
    "message</w>": 4175,
    "isco</w>": 4176,
    "firefighters</w>": 4177,
    "fake</w>": 4178,
    "óg": 4179,
    "wear</w>": 4180,
    "streets</w>": 4181,
    "emos</w>": 4182,
    "avoid</w>": 4183,
    "freed": 4184,
    "record": 4185,
    "bo</w>": 4186,
    "teen": 4187,
    "electoral</w>": 4188,
    "mexican</w>": 4189,
    "mach": 4190,
    "larger</w>": 4191,
    "website</w>": 4192,
    "clar": 4193,
    "pupil</w>": 4194,
    "sh</w>": 4195,
    "inflation</w>": 4196,
    "gingr": 4197,
    "lake</w>": 4198,
    "ieron</w>": 4199,
    "syl": 4200,
    "sylv": 4201,
    "ww": 4202,
    "www</w>": 4203,
    "expl": 4204,
    "32</w>": 4205,
    "approval</w>": 4206,
    "vetoed</w>": 4207,
    "lif": 4208,
    "rising</w>": 4209,
    "dead": 4210,
    "hasn</w>": 4211,
    "aging</w>": 4212,
    "causes</w>": 4213,
    "tambi": 4214,
    "tour": 4215,
    "lí": 4216,
    "illa</w>": 4217,
    "extra</w>": 4218,
    "blue</w>": 4219,
    "pled</w>": 4220,
    "faste": 4221,
    "fastest</w>": 4222,
    "stadium</w>": 4223,
    "wearing</w>": 4224,
    "oods</w>": 4225,
    "earning</w>": 4226,
    "itar</w>": 4227,
    "españa</w>": 4228,
    "robert</w>": 4229,
    "agents</w>": 4230,
    "dan": 4231,
    "lady</w>": 4232,
    "qaida</w>": 4233,
    "frank</w>": 4234,
    "colleges</w>": 4235,
    "restaurant</w>": 4236,
    "hiv</w>": 4237,
    "57</w>": 4238,
    "kans": 4239,
    "wind</w>": 4240,
    "hired</w>": 4241,
    "nacionales</w>": 4242,
    "alcoho": 4243,
    "alcohol</w>": 4244,
    "putting</w>": 4245,
    "paci": 4246,
    "faster</w>": 4247,
    "cert": 4248,
    "lor": 4249,
    "wind": 4250,
    "asing</w>": 4251,
    "british</w>": 4252,
    "projected</w>": 4253,
    "dar": 4254,
    "fing": 4255,
    "trust</w>": 4256,
    "loop": 4257,
    "rooms</w>": 4258,
    "through": 4259,
    "remains</w>": 4260,
    "nra</w>": 4261,
    "trab": 4262,
    "laid</w>": 4263,
    "temper": 4264,
    "temperat": 4265,
    "ención</w>": 4266,
    "ranked</w>": 4267,
    "67</w>": 4268,
    "met</w>": 4269,
    "iran": 4270,
    "infrastructure</w>": 4271,
    "inher": 4272,
    "inside</w>": 4273,
    "https</w>": 4274,
    "repair</w>": 4275,
    "estados</w>": 4276,
    "estado</w>": 4277,
    "también</w>": 4278,
    "sot": 4279,
    "cio</w>": 4280,
    "seeing</w>": 4281,
    "ín": 4282,
    "guber": 4283,
    "jen": 4284,
    "charged</w>": 4285,
    "epa</w>": 4286,
    "agree</w>": 4287,
    "consist": 4288,
    "ton": 4289,
    "97</w>": 4290,
    "pla": 4291,
    "libya</w>": 4292,
    "dram": 4293,
    "purchase</w>": 4294,
    "telev": 4295,
    "ili": 4296,
    "unemployed</w>": 4297,
    "kansas</w>": 4298,
    "poses</w>": 4299,
    "ested</w>": 4300,
    "enrol": 4301,
    "reas": 4302,
    "jack": 4303,
    "aqu": 4304,
    "freedom</w>": 4305,
    "iled</w>": 4306,
    "keystone</w>": 4307,
    "nomination</w>": 4308,
    "scor": 4309,
    "describ": 4310,
    "environmental</w>": 4311,
    "aids</w>": 4312,
    "rather</w>": 4313,
    "rich</w>": 4314,
    "58</w>": 4315,
    "shooter</w>": 4316,
    "licenses</w>": 4317,
    "oppose</w>": 4318,
    "tu</w>": 4319,
    "bankrupt": 4320,
    "dir": 4321,
    "wouldn</w>": 4322,
    "disaster</w>": 4323,
    "influ": 4324,
    "cier": 4325,
    "anas</w>": 4326,
    "confer": 4327,
    "effect": 4328,
    "ational</w>": 4329,
    "milk</w>": 4330,
    "response</w>": 4331,
    "«</w>": 4332,
    "fourth</w>": 4333,
    "buff": 4334,
    "fer</w>": 4335,
    "hop": 4336,
    "mica</w>": 4337,
    "femin": 4338,
    "declined</w>": 4339,
    "hikes</w>": 4340,
    "lleg": 4341,
    "sistema</w>": 4342,
    "february</w>": 4343,
    "exam": 4344,
    "allas</w>": 4345,
    "question</w>": 4346,
    "waiting</w>": 4347,
    "amaz": 4348,
    "sanctu": 4349,
    "jr</w>": 4350,
    "89</w>": 4351,
    "mater": 4352,
    "hasnt</w>": 4353,
    "throughout</w>": 4354,
    "capitol</w>": 4355,
    "showed</w>": 4356,
    "parent</w>": 4357,
    "divers": 4358,
    "bow": 4359,
    "included</w>": 4360,
    "miss": 4361,
    "hall</w>": 4362,
    "gingrich</w>": 4363,
    "deliver": 4364,
    "graduates</w>": 4365,
    "promises</w>": 4366,
    "naz": 4367,
    "standard</w>": 4368,
    "fort": 4369,
    "viral</w>": 4370,
    "ny</w>": 4371,
    "demonstr": 4372,
    "ja</w>": 4373,
    "nic": 4374,
    "contract</w>": 4375,
    "hook</w>": 4376,
    "film</w>": 4377,
    "status</w>": 4378,
    "basis</w>": 4379,
    "front</w>": 4380,
    "76</w>": 4381,
    "gasoline</w>": 4382,
    "bac": 4383,
    "prescrip": 4384,
    "grants</w>": 4385,
    "tra": 4386,
    "expensive</w>": 4387,
    "news": 4388,
    "discus": 4389,
    "folks</w>": 4390,
    "patient</w>": 4391,
    "comer": 4392,
    "problems</w>": 4393,
    "walmart</w>": 4394,
    "anton": 4395,
    "eled</w>": 4396,
    "pos</w>": 4397,
    "cost": 4398,
    "scientists</w>": 4399,
    "2002</w>": 4400,
    "forma</w>": 4401,
    "meses</w>": 4402,
    "vari": 4403,
    "mean</w>": 4404,
    "mr</w>": 4405,
    "dallas</w>": 4406,
    "politics</w>": 4407,
    "sanctuary</w>": 4408,
    "canadian</w>": 4409,
    "whel": 4410,
    "islam</w>": 4411,
    "lobbyists</w>": 4412,
    "squ": 4413,
    "ile": 4414,
    "commercial</w>": 4415,
    "commission": 4416,
    "marine</w>": 4417,
    "moun": 4418,
    "oct</w>": 4419,
    "bru": 4420,
    "oblig": 4421,
    "wild": 4422,
    "dum": 4423,
    "hard": 4424,
    "kel": 4425,
    "uda</w>": 4426,
    "63</w>": 4427,
    "eda</w>": 4428,
    "anunci": 4429,
    "bond</w>": 4430,
    "worse</w>": 4431,
    "deleg": 4432,
    "así</w>": 4433,
    "resulta</w>": 4434,
    "sos</w>": 4435,
    "americas</w>": 4436,
    "summer</w>": 4437,
    "dr</w>": 4438,
    "invested</w>": 4439,
    "cant": 4440,
    "planes</w>": 4441,
    "ly": 4442,
    "crossing</w>": 4443,
    "gulf</w>": 4444,
    "box": 4445,
    "vaccine</w>": 4446,
    "permanent</w>": 4447,
    "bc</w>": 4448,
    "written</w>": 4449,
    "lock</w>": 4450,
    "statewide</w>": 4451,
    "december</w>": 4452,
    "players</w>": 4453,
    "pum": 4454,
    "entit": 4455,
    "murdered</w>": 4456,
    "fish</w>": 4457,
    "universal</w>": 4458,
    "shown</w>": 4459,
    "mujer": 4460,
    "mujeres</w>": 4461,
    "tres</w>": 4462,
    "consec": 4463,
    "gains</w>": 4464,
    "block</w>": 4465,
    "ahora</w>": 4466,
    "permit</w>": 4467,
    "vacation</w>": 4468,
    "hundred</w>": 4469,
    "confirm": 4470,
    "kenne": 4471,
    "ientos</w>": 4472,
    "ashed</w>": 4473,
    "nuevo</w>": 4474,
    "published</w>": 4475,
    "sequest": 4476,
    "shutdown</w>": 4477,
    "tennes": 4478,
    "1994</w>": 4479,
    "56</w>": 4480,
    "blocked</w>": 4481,
    "donations</w>": 4482,
    "ogle</w>": 4483,
    "opportunity</w>": 4484,
    "trans</w>": 4485,
    "libr": 4486,
    "assaul": 4487,
    "autor": 4488,
    "ecto</w>": 4489,
    "games</w>": 4490,
    "scot": 4491,
    "friend</w>": 4492,
    "dicen</w>": 4493,
    "minutes</w>": 4494,
    "gon": 4495,
    "van</w>": 4496,
    "jerry</w>": 4497,
    "santa</w>": 4498,
    "pregnant</w>": 4499,
    "apol": 4500,
    "somebody</w>": 4501,
    "weapon</w>": 4502,
    "signs</w>": 4503,
    "pat</w>": 4504,
    "bt</w>": 4505,
    "allies</w>": 4506,
    "51</w>": 4507,
    "advert": 4508,
    "expected</w>": 4509,
    "contains</w>": 4510,
    "anci": 4511,
    "she": 4512,
    "region</w>": 4513,
    "confirmed</w>": 4514,
    "chairman</w>": 4515,
    "realiz": 4516,
    "common": 4517,
    "52</w>": 4518,
    "take": 4519,
    "takeover</w>": 4520,
    "forcing</w>": 4521,
    "overwhel": 4522,
    "ños</w>": 4523,
    "continu": 4524,
    "tec": 4525,
    "900</w>": 4526,
    "bigger</w>": 4527,
    "bureau</w>": 4528,
    "mist": 4529,
    "consumer</w>": 4530,
    "od": 4531,
    "agriculture</w>": 4532,
    "inaug": 4533,
    "claiming</w>": 4534,
    "theyve</w>": 4535,
    "fine</w>": 4536,
    "segu": 4537,
    "ior</w>": 4538,
    "hotel</w>": 4539,
    "google</w>": 4540,
    "wisconsins</w>": 4541,
    "starting</w>": 4542,
    "anthem</w>": 4543,
    "vast</w>": 4544,
    "eling</w>": 4545,
    "wards</w>": 4546,
    "mob": 4547,
    "77</w>": 4548,
    "algun": 4549,
    "threatened</w>": 4550,
    "renew": 4551,
    "leag": 4552,
    "forces</w>": 4553,
    "series</w>": 4554,
    "straight</w>": 4555,
    "sheriff</w>": 4556,
    "noticia</w>": 4557,
    "vie</w>": 4558,
    "embre</w>": 4559,
    "severe</w>": 4560,
    "demand</w>": 4561,
    "computer</w>": 4562,
    "craft</w>": 4563,
    "contain</w>": 4564,
    "ceiling</w>": 4565,
    "ah": 4566,
    "pret": 4567,
    "meat</w>": 4568,
    "1980</w>": 4569,
    "repeat": 4570,
    "repeatedly</w>": 4571,
    "parte</w>": 4572,
    "fee</w>": 4573,
    "rated</w>": 4574,
    "latina</w>": 4575,
    "interests</w>": 4576,
    "giant</w>": 4577,
    "120</w>": 4578,
    "empresas</w>": 4579,
    "screen": 4580,
    "burns</w>": 4581,
    "luther</w>": 4582,
    "fix</w>": 4583,
    "18": 4584,
    "minister</w>": 4585,
    "utions</w>": 4586,
    "reading</w>": 4587,
    "denied</w>": 4588,
    "considered</w>": 4589,
    "secure</w>": 4590,
    "passing</w>": 4591,
    "abol": 4592,
    "taxed</w>": 4593,
    "jon</w>": 4594,
    "obj": 4595,
    "gross</w>": 4596,
    "eces</w>": 4597,
    "strip</w>": 4598,
    "uted</w>": 4599,
    "europe</w>": 4600,
    "voucher</w>": 4601,
    "nathan</w>": 4602,
    "yers</w>": 4603,
    "mej": 4604,
    "main": 4605,
    "exc": 4606,
    "illeg": 4607,
    "estad": 4608,
    "merc": 4609,
    "sessions</w>": 4610,
    "ning": 4611,
    "perf": 4612,
    "beer</w>": 4613,
    "advocated</w>": 4614,
    "crash</w>": 4615,
    "bucks</w>": 4616,
    "intent": 4617,
    "uno</w>": 4618,
    "stage</w>": 4619,
    "adel": 4620,
    "donde</w>": 4621,
    "hire</w>": 4622,
    "license</w>": 4623,
    "pensions</w>": 4624,
    "blacks</w>": 4625,
    "cic": 4626,
    "missed</w>": 4627,
    "cuento</w>": 4628,
    "controlled</w>": 4629,
    "vo</w>": 4630,
    "risen</w>": 4631,
    "thomas</w>": 4632,
    "2004</w>": 4633,
    "waters</w>": 4634,
    "australi": 4635,
    "declared</w>": 4636,
    "pow": 4637,
    "lack</w>": 4638,
    "internacionales</w>": 4639,
    "francisco</w>": 4640,
    "lares</w>": 4641,
    "ológ": 4642,
    "mortality</w>": 4643,
    "premium</w>": 4644,
    "2005</w>": 4645,
    "ville</w>": 4646,
    "hing</w>": 4647,
    "ár": 4648,
    "shir": 4649,
    "william</w>": 4650,
    "amo</w>": 4651,
    "associated</w>": 4652,
    "ph</w>": 4653,
    "soldiers</w>": 4654,
    "bie</w>": 4655,
    "walkers</w>": 4656,
    "ni</w>": 4657,
    "literally</w>": 4658,
    "prescription</w>": 4659,
    "elled</w>": 4660,
    "accepted</w>": 4661,
    "pru": 4662,
    "suggested</w>": 4663,
    "homeland</w>": 4664,
    "wine</w>": 4665,
    "bankruptcy</w>": 4666,
    "130</w>": 4667,
    "graph": 4668,
    "mine</w>": 4669,
    "cross</w>": 4670,
    "asser": 4671,
    "pennsylv": 4672,
    "corn": 4673,
    "becoming</w>": 4674,
    "historic</w>": 4675,
    "alab": 4676,
    "nif": 4677,
    "gubernat": 4678,
    "sched": 4679,
    "schedul": 4680,
    "element": 4681,
    "estimates</w>": 4682,
    "portman</w>": 4683,
    "supply</w>": 4684,
    "cred": 4685,
    "areas</w>": 4686,
    "combat</w>": 4687,
    "elling</w>": 4688,
    "gam": 4689,
    "dinero</w>": 4690,
    "moon</w>": 4691,
    "ebola</w>": 4692,
    "carter</w>": 4693,
    "doyle</w>": 4694,
    "xon</w>": 4695,
    "72</w>": 4696,
    "course</w>": 4697,
    "protests</w>": 4698,
    "eighty</w>": 4699,
    "stone</w>": 4700,
    "mayoral</w>": 4701,
    "lyn": 4702,
    "everything</w>": 4703,
    "ported</w>": 4704,
    "appointed</w>": 4705,
    "labor": 4706,
    "measures</w>": 4707,
    "dólares</w>": 4708,
    "unidos</w>": 4709,
    "judges</w>": 4710,
    "important</w>": 4711,
    "incumb": 4712,
    "ising</w>": 4713,
    "gos</w>": 4714,
    "targe": 4715,
    "reproduc": 4716,
    "view": 4717,
    "hate</w>": 4718,
    "turning</w>": 4719,
    "gree</w>": 4720,
    "braz": 4721,
    "kit": 4722,
    "sending</w>": 4723,
    "icio</w>": 4724,
    "accounta": 4725,
    "accountability</w>": 4726,
    "appreh": 4727,
    "speed</w>": 4728,
    "sanctions</w>": 4729,
    "graham</w>": 4730,
    "ulation</w>": 4731,
    "día</w>": 4732,
    "ult": 4733,
    "pit": 4734,
    "pledge</w>": 4735,
    "fifth</w>": 4736,
    "registration</w>": 4737,
    "deduction</w>": 4738,
    "led": 4739,
    "ionaire</w>": 4740,
    "keeping</w>": 4741,
    "prime</w>": 4742,
    "aun": 4743,
    "illed</w>": 4744,
    "whole</w>": 4745,
    "nationally</w>": 4746,
    "civil": 4747,
    "played</w>": 4748,
    "delivered</w>": 4749,
    "pennsylvania</w>": 4750,
    "toward</w>": 4751,
    "but": 4752,
    "mandates</w>": 4753,
    "happened</w>": 4754,
    "olf</w>": 4755,
    "captured</w>": 4756,
    "equival": 4757,
    "kent": 4758,
    "kentuck": 4759,
    "destroy</w>": 4760,
    "earli": 4761,
    "quien</w>": 4762,
    "semana</w>": 4763,
    "gubernatorial</w>": 4764,
    "elementary</w>": 4765,
    "statistics</w>": 4766,
    "exchange</w>": 4767,
    "hold": 4768,
    "neg": 4769,
    "begin</w>": 4770,
    "pet</w>": 4771,
    "sense</w>": 4772,
    "faith</w>": 4773,
    "dele": 4774,
    "holiday</w>": 4775,
    "whose</w>": 4776,
    "micro": 4777,
    "black": 4778,
    "arrest</w>": 4779,
    "ika</w>": 4780,
    "emissions</w>": 4781,
    "concer": 4782,
    "attr": 4783,
    "relat": 4784,
    "hit": 4785,
    "motor": 4786,
    "admitted</w>": 4787,
    "cig": 4788,
    "flight</w>": 4789,
    "granted</w>": 4790,
    "remain</w>": 4791,
    "carr": 4792,
    "jac": 4793,
    "facing</w>": 4794,
    "citizen</w>": 4795,
    "freez": 4796,
    "augh</w>": 4797,
    "invented</w>": 4798,
    "sant": 4799,
    "yo</w>": 4800,
    "closing</w>": 4801,
    "penny</w>": 4802,
    "dream</w>": 4803,
    "slavery</w>": 4804,
    "donated</w>": 4805,
    "inaugur": 4806,
    "mani": 4807,
    "replaced</w>": 4808,
    "steph": 4809,
    "gap</w>": 4810,
    "iow": 4811,
    "iowa</w>": 4812,
    "sand</w>": 4813,
    "host</w>": 4814,
    "mil</w>": 4815,
    "2019</w>": 4816,
    "expand</w>": 4817,
    "quote</w>": 4818,
    "mac": 4819,
    "acuer": 4820,
    "passes</w>": 4821,
    "bp</w>": 4822,
    "davis</w>": 4823,
    "én": 4824,
    "piece</w>": 4825,
    "visit</w>": 4826,
    "días</w>": 4827,
    "pasado</w>": 4828,
    "delayed</w>": 4829,
    "substant": 4830,
    "twee": 4831,
    "kra": 4832,
    "kid": 4833,
    "phones</w>": 4834,
    "lanes</w>": 4835,
    "kasich</w>": 4836,
    "agon</w>": 4837,
    "proces": 4838,
    "mult": 4839,
    "penalty</w>": 4840,
    "depicts</w>": 4841,
    "efect": 4842,
    "drinking</w>": 4843,
    "floridas</w>": 4844,
    "inm": 4845,
    "resources</w>": 4846,
    "barbar": 4847,
    "mode": 4848,
    "prior</w>": 4849,
    "ok</w>": 4850,
    "linked</w>": 4851,
    "nasa</w>": 4852,
    "pró": 4853,
    "aca</w>": 4854,
    "positions</w>": 4855,
    "flat</w>": 4856,
    "ases</w>": 4857,
    "stated</w>": 4858,
    "discrimination</w>": 4859,
    "bloo": 4860,
    "icamente</w>": 4861,
    "active</w>": 4862,
    "accidents</w>": 4863,
    "onic</w>": 4864,
    "acco</w>": 4865,
    "successful</w>": 4866,
    "1960</w>": 4867,
    "revealed</w>": 4868,
    "tras": 4869,
    "hidden</w>": 4870,
    "honor</w>": 4871,
    "guant": 4872,
    "newt</w>": 4873,
    "try</w>": 4874,
    "incidents</w>": 4875,
    "nursing</w>": 4876,
    "staff": 4877,
    "abuse</w>": 4878,
    "recorded</w>": 4879,
    "ention</w>": 4880,
    "bulbs</w>": 4881,
    "1970</w>": 4882,
    "forec": 4883,
    "day": 4884,
    "posted</w>": 4885,
    "habl": 4886,
    "put": 4887,
    "applic": 4888,
    "cot": 4889,
    "dé": 4890,
    "74</w>": 4891,
    "dnc</w>": 4892,
    "mandatory</w>": 4893,
    "matern": 4894,
    "initi": 4895,
    "accur": 4896,
    "platform</w>": 4897,
    "others</w>": 4898,
    "strikes</w>": 4899,
    "fast</w>": 4900,
    "medio</w>": 4901,
    "politif": 4902,
    "demic</w>": 4903,
    "partn": 4904,
    "commit</w>": 4905,
    "ivas</w>": 4906,
    "asegur": 4907,
    "guy</w>": 4908,
    "page</w>": 4909,
    "offering</w>": 4910,
    "accept</w>": 4911,
    "rifle</w>": 4912,
    "appl": 4913,
    "bling</w>": 4914,
    "clearly</w>": 4915,
    "seeking</w>": 4916,
    "afect": 4917,
    "ula</w>": 4918,
    "hurt</w>": 4919,
    "model</w>": 4920,
    "ioned</w>": 4921,
    "350</w>": 4922,
    "requiring</w>": 4923,
    "niv": 4924,
    "próxim": 4925,
    "arr": 4926,
    "requirement</w>": 4927,
    "ships</w>": 4928,
    "privatizing</w>": 4929,
    "muy</w>": 4930,
    "antonio</w>": 4931,
    "@</w>": 4932,
    "inspec": 4933,
    "syst": 4934,
    "expanding</w>": 4935,
    "beli": 4936,
    "decisions</w>": 4937,
    "inde": 4938,
    "impose</w>": 4939,
    "tobacco</w>": 4940,
    "andre": 4941,
    "victim</w>": 4942,
    "abra": 4943,
    "deer</w>": 4944,
    "tained</w>": 4945,
    "alabama</w>": 4946,
    "adopted</w>": 4947,
    "66</w>": 4948,
    "médicos</w>": 4949,
    "subsidies</w>": 4950,
    "bing</w>": 4951,
    "guantan": 4952,
    "guantanamo</w>": 4953,
    "phys": 4954,
    "store</w>": 4955,
    "fellow</w>": 4956,
    "proven</w>": 4957,
    "iana</w>": 4958,
    "mortgage</w>": 4959,
    "sean</w>": 4960,
    "debbie</w>": 4961,
    "2023</w>": 4962,
    "jum": 4963,
    "wedding</w>": 4964,
    "except</w>": 4965,
    "identification</w>": 4966,
    "base</w>": 4967,
    "rescu": 4968,
    "tests</w>": 4969,
    "transit</w>": 4970,
    "guarante": 4971,
    "iti</w>": 4972,
    "raped</w>": 4973,
    "rose</w>": 4974,
    "revel": 4975,
    "vez</w>": 4976,
    "smi": 4977,
    "mascar": 4978,
    "financi": 4979,
    "implemented</w>": 4980,
    "intended</w>": 4981,
    "chance</w>": 4982,
    "ight": 4983,
    "supervis": 4984,
    "airs</w>": 4985,
    "elder": 4986,
    "elderly</w>": 4987,
    "coff": 4988,
    "protected</w>": 4989,
    "consumers</w>": 4990,
    "murders</w>": 4991,
    "unit</w>": 4992,
    "política</w>": 4993,
    "paso</w>": 4994,
    "segur": 4995,
    "bar</w>": 4996,
    "donors</w>": 4997,
    "magaz": 4998,
    "gold</w>": 4999,
    "icides</w>": 5000,
    "elecciones</w>": 5001,
    "cifr": 5002,
    "cambio</w>": 5003,
    "pobl": 5004,
    "effectively</w>": 5005,
    "owner</w>": 5006,
    "proced": 5007,
    "bia</w>": 5008,
    "soldier</w>": 5009,
    "ende": 5010,
    "preci": 5011,
    "completamente</w>": 5012,
    "poll": 5013,
    "flic": 5014,
    "activity</w>": 5015,
    "conc": 5016,
    "ipe</w>": 5017,
    "animals</w>": 5018,
    "acep": 5019,
    "pent": 5020,
    "program": 5021,
    "commerce</w>": 5022,
    "census</w>": 5023,
    "shoot</w>": 5024,
    "apolog": 5025,
    "haven</w>": 5026,
    "barbara</w>": 5027,
    "banc": 5028,
    "listed</w>": 5029,
    "medicine</w>": 5030,
    "avan": 5031,
    "camera</w>": 5032,
    "oning</w>": 5033,
    "partner</w>": 5034,
    "duty</w>": 5035,
    "wise</w>": 5036,
    "stabb": 5037,
    "questions</w>": 5038,
    "truth</w>": 5039,
    "01</w>": 5040,
    "hav": 5041,
    "thy</w>": 5042,
    "controversi": 5043,
    "sued</w>": 5044,
    "94</w>": 5045,
    "attempt</w>": 5046,
    "wait</w>": 5047,
    "essentially</w>": 5048,
    "small": 5049,
    "ince": 5050,
    "mos</w>": 5051,
    "aba</w>": 5052,
    "eta</w>": 5053,
    "instruc": 5054,
    "tural</w>": 5055,
    "resulted</w>": 5056,
    "defe": 5057,
    "53</w>": 5058,
    "po</w>": 5059,
    "itself</w>": 5060,
    "mou": 5061,
    "placed</w>": 5062,
    "bureaucrats</w>": 5063,
    "pública</w>": 5064,
    "managed</w>": 5065,
    "sac": 5066,
    "jet</w>": 5067,
    "primer</w>": 5068,
    "foc": 5069,
    "source</w>": 5070,
    "consider": 5071,
    "assistance</w>": 5072,
    "bus</w>": 5073,
    "southern</w>": 5074,
    "tea</w>": 5075,
    "expanded</w>": 5076,
    "antage</w>": 5077,
    "inauguration</w>": 5078,
    "manipul": 5079,
    "rol</w>": 5080,
    "78</w>": 5081,
    "amounts</w>": 5082,
    "path</w>": 5083,
    "politician</w>": 5084,
    "web</w>": 5085,
    "situ": 5086,
    "inherited</w>": 5087,
    "alists</w>": 5088,
    "gar</w>": 5089,
    "nationwide</w>": 5090,
    "yroc": 5091,
    "partnership</w>": 5092,
    "carlos</w>": 5093,
    "bathroom</w>": 5094,
    "kinds</w>": 5095,
    "clinics</w>": 5096,
    "brac": 5097,
    "parec": 5098,
    "offices</w>": 5099,
    "hike</w>": 5100,
    "confeder": 5101,
    "battle</w>": 5102,
    "deal": 5103,
    "vehicles</w>": 5104,
    "storm</w>": 5105,
    "exact": 5106,
    "lottery</w>": 5107,
    "scholarship</w>": 5108,
    "estudio</w>": 5109,
    "pages</w>": 5110,
    "iel</w>": 5111,
    "club</w>": 5112,
    "extrem": 5113,
    "patri": 5114,
    "compens": 5115,
    "simp": 5116,
    "richest</w>": 5117,
    "golf</w>": 5118,
    "kind": 5119,
    "kinderg": 5120,
    "occurred</w>": 5121,
    "trag": 5122,
    "perm": 5123,
    "enz": 5124,
    "says": 5125,
    "elli</w>": 5126,
    "capac": 5127,
    "cigar": 5128,
    "math</w>": 5129,
    "controversial</w>": 5130,
    "refuses</w>": 5131,
    "op</w>": 5132,
    "andrew</w>": 5133,
    "abraham</w>": 5134,
    "lg": 5135,
    "reached</w>": 5136,
    "pus</w>": 5137,
    "critical</w>": 5138,
    "planning</w>": 5139,
    "perdue</w>": 5140,
    "mining</w>": 5141,
    "slaves</w>": 5142,
    "navy</w>": 5143,
    "ireland</w>": 5144,
    "kenya</w>": 5145,
    "iciency</w>": 5146,
    "cbo</w>": 5147,
    "metro</w>": 5148,
    "version</w>": 5149,
    "parties</w>": 5150,
    "agua</w>": 5151,
    "nam</w>": 5152,
    "haber</w>": 5153,
    "particul": 5154,
    "eliminating</w>": 5155,
    "apply</w>": 5156,
    "certain</w>": 5157,
    "imming</w>": 5158,
    "prueb": 5159,
    "patrol</w>": 5160,
    "fres": 5161,
    "fair</w>": 5162,
    "sab": 5163,
    "resol": 5164,
    "childhood</w>": 5165,
    "strike</w>": 5166,
    "stephen</w>": 5167,
    "cuba</w>": 5168,
    "separate</w>": 5169,
    "bruce</w>": 5170,
    "pushed</w>": 5171,
    "ér": 5172,
    "yl": 5173,
    "legislators</w>": 5174,
    "progres": 5175,
    "beat</w>": 5176,
    "enas</w>": 5177,
    "resid": 5178,
    "politifact</w>": 5179,
    "illegals</w>": 5180,
    "keting</w>": 5181,
    "lear": 5182,
    "chez</w>": 5183,
    "ounded</w>": 5184,
    "felony</w>": 5185,
    "beach</w>": 5186,
    "pueden</w>": 5187,
    "flying</w>": 5188,
    "ancing</w>": 5189,
    "cob": 5190,
    "señ": 5191,
    "soon</w>": 5192,
    "conflic": 5193,
    "ift</w>": 5194,
    "pac</w>": 5195,
    "grocer": 5196,
    "\\</w>": 5197,
    "será</w>": 5198,
    "mes</w>": 5199,
    "met": 5200,
    "puts</w>": 5201,
    "felons</w>": 5202,
    "argent": 5203,
    "gest": 5204,
    "kno": 5205,
    "gers</w>": 5206,
    "francis</w>": 5207,
    "pbs</w>": 5208,
    "concealed</w>": 5209,
    "short": 5210,
    "cer</w>": 5211,
    "ilidad</w>": 5212,
    "addres": 5213,
    "subject</w>": 5214,
    "privatize</w>": 5215,
    "neu": 5216,
    "degree</w>": 5217,
    "bat": 5218,
    "cauc": 5219,
    "love</w>": 5220,
    "refuse</w>": 5221,
    "review</w>": 5222,
    "philadel": 5223,
    "philadelph": 5224,
    "primera</w>": 5225,
    "mira</w>": 5226,
    "rico</w>": 5227,
    "predicted</w>": 5228,
    "incest</w>": 5229,
    "rig": 5230,
    "apo": 5231,
    "past": 5232,
    "nato</w>": 5233,
    "liberals</w>": 5234,
    "61</w>": 5235,
    "efs</w>": 5236,
    "short</w>": 5237,
    "afir": 5238,
    "tionary</w>": 5239,
    "pep": 5240,
    "oficiales</w>": 5241,
    "recogn": 5242,
    "kennedy</w>": 5243,
    "evitar</w>": 5244,
    "graduate</w>": 5245,
    "lap": 5246,
    "itim": 5247,
    "pacientes</w>": 5248,
    "compr": 5249,
    "expect": 5250,
    "aunque</w>": 5251,
    "recipients</w>": 5252,
    "39</w>": 5253,
    "commissioner</w>": 5254,
    "eliminated</w>": 5255,
    "sequester</w>": 5256,
    "surr": 5257,
    "bowl</w>": 5258,
    "tennessee</w>": 5259,
    "regarding</w>": 5260,
    "south": 5261,
    "endous</w>": 5262,
    "coal": 5263,
    "water": 5264,
    "simple</w>": 5265,
    "figure</w>": 5266,
    "recomm": 5267,
    "iles</w>": 5268,
    "inated</w>": 5269,
    "moore</w>": 5270,
    "embargo</w>": 5271,
    "overs": 5272,
    "mi</w>": 5273,
    "isn</w>": 5274,
    "nunca</w>": 5275,
    "mucho</w>": 5276,
    "posit": 5277,
    "bans</w>": 5278,
    "association</w>": 5279,
    "wont</w>": 5280,
    "counter": 5281,
    "survey</w>": 5282,
    "cicill": 5283,
    "cicilline</w>": 5284,
    "equivalent</w>": 5285,
    "trumps</w>": 5286,
    "aría</w>": 5287,
    "loss</w>": 5288,
    "affect</w>": 5289,
    "artificial</w>": 5290,
    "ño</w>": 5291,
    "eing</w>": 5292,
    "corruption</w>": 5293,
    "reach</w>": 5294,
    "attempted</w>": 5295,
    "television</w>": 5296,
    "husband</w>": 5297,
    "ifically</w>": 5298,
    "borders</w>": 5299,
    "zika</w>": 5300,
    "fab": 5301,
    "speaking</w>": 5302,
    "northern</w>": 5303,
    "sotom": 5304,
    "sotomay": 5305,
    "sotomayor</w>": 5306,
    "surve": 5307,
    "romneys</w>": 5308,
    "conspir": 5309,
    "ak": 5310,
    "alities</w>": 5311,
    "ival</w>": 5312,
    "fair": 5313,
    "hacer</w>": 5314,
    "plast": 5315,
    "sor</w>": 5316,
    "mcdonald</w>": 5317,
    "horse</w>": 5318,
    "chan": 5319,
    "ug": 5320,
    "pedoph": 5321,
    "league</w>": 5322,
    "82</w>": 5323,
    "value</w>": 5324,
    "tower</w>": 5325,
    "loophole</w>": 5326,
    "consecut": 5327,
    "influence</w>": 5328,
    "consul": 5329,
    "ishing</w>": 5330,
    "cómo</w>": 5331,
    "ake</w>": 5332,
    "japan</w>": 5333,
    "2021</w>": 5334,
    "echo</w>": 5335,
    "scores</w>": 5336,
    "pretty</w>": 5337,
    "movie</w>": 5338,
    "dose</w>": 5339,
    "appar": 5340,
    "alg": 5341,
    "fuel</w>": 5342,
    "vacunación</w>": 5343,
    "advantage</w>": 5344,
    "rainy</w>": 5345,
    "wend": 5346,
    "champ": 5347,
    "mothers</w>": 5348,
    "christians</w>": 5349,
    "wing</w>": 5350,
    "illas</w>": 5351,
    "ipped</w>": 5352,
    "prevent": 5353,
    "dio</w>": 5354,
    "nurses</w>": 5355,
    "duter": 5356,
    "duterte</w>": 5357,
    "ables</w>": 5358,
    "quier": 5359,
    "couldn</w>": 5360,
    "assas": 5361,
    "engl": 5362,
    "english</w>": 5363,
    "supposed</w>": 5364,
    "jour": 5365,
    "ele": 5366,
    "minister": 5367,
    "occup": 5368,
    "buying</w>": 5369,
    "colombia</w>": 5370,
    "autoridades</w>": 5371,
    "ori": 5372,
    "identified</w>": 5373,
    "katr": 5374,
    "katrina</w>": 5375,
    "ciudad</w>": 5376,
    "»</w>": 5377,
    "defin": 5378,
    "tar</w>": 5379,
    "ioning</w>": 5380,
    "nap": 5381,
    "adviser</w>": 5382,
    "trip</w>": 5383,
    "81</w>": 5384,
    "daily</w>": 5385,
    "benefici": 5386,
    "banning</w>": 5387,
    "treasury</w>": 5388,
    "cual": 5389,
    "pom": 5390,
    "ólo": 5391,
    "sports</w>": 5392,
    "mut": 5393,
    "aver": 5394,
    "yan</w>": 5395,
    "mccoll": 5396,
    "specifically</w>": 5397,
    "filed</w>": 5398,
    "surviv": 5399,
    "decreased</w>": 5400,
    "harass": 5401,
    "accident</w>": 5402,
    "eria</w>": 5403,
    "images</w>": 5404,
    "crow": 5405,
    "other": 5406,
    "erra</w>": 5407,
    "letting</w>": 5408,
    "gin</w>": 5409,
    "certific": 5410,
    "nine": 5411,
    "enforce</w>": 5412,
    "success</w>": 5413,
    "sept</w>": 5414,
    "kavan": 5415,
    "edi": 5416,
    "puesto</w>": 5417,
    "illness</w>": 5418,
    "stamp</w>": 5419,
    "racial</w>": 5420,
    "sequ": 5421,
    "orities</w>": 5422,
    "teach</w>": 5423,
    "metro": 5424,
    "ranking</w>": 5425,
    "customer</w>": 5426,
    "gates</w>": 5427,
    "extended</w>": 5428,
    "representative</w>": 5429,
    "tough</w>": 5430,
    "emen</w>": 5431,
    "wasn</w>": 5432,
    "nett</w>": 5433,
    "mcconn": 5434,
    "mcconnell</w>": 5435,
    "rej": 5436,
    "iendo</w>": 5437,
    "ris</w>": 5438,
    "chain</w>": 5439,
    "cann": 5440,
    "ón": 5441,
    "potential</w>": 5442,
    "ual": 5443,
    "leaked</w>": 5444,
    "trabaj": 5445,
    "tox": 5446,
    "ignor": 5447,
    "wit": 5448,
    "smith</w>": 5449,
    "filled</w>": 5450,
    "burke</w>": 5451,
    "bands</w>": 5452,
    "affairs</w>": 5453,
    "throw</w>": 5454,
    "ne</w>": 5455,
    "funcion": 5456,
    "eis": 5457,
    "pez</w>": 5458,
    "dime</w>": 5459,
    "produced</w>": 5460,
    "ruled</w>": 5461,
    "enfermedad</w>": 5462,
    "incent": 5463,
    "ond": 5464,
    "magazine</w>": 5465,
    "alternative</w>": 5466,
    "emb": 5467,
    "expenses</w>": 5468,
    "aren</w>": 5469,
    "heart</w>": 5470,
    "killer</w>": 5471,
    "yr": 5472,
    "supporter</w>": 5473,
    "tribune</w>": 5474,
    "aud": 5475,
    "esper": 5476,
    "aband": 5477,
    "operating</w>": 5478,
    "trained</w>": 5479,
    "ellas</w>": 5480,
    "pentagon</w>": 5481,
    "descu": 5482,
    "clud": 5483,
    "playing</w>": 5484,
    "dedic": 5485,
    "technolog": 5486,
    "plom": 5487,
    "jeff": 5488,
    "mccollum</w>": 5489,
    "offer</w>": 5490,
    "prove</w>": 5491,
    "sit</w>": 5492,
    "nor</w>": 5493,
    "arkansas</w>": 5494,
    "unch</w>": 5495,
    "cing</w>": 5496,
    "69</w>": 5497,
    "internal</w>": 5498,
    "vs</w>": 5499,
    "reps</w>": 5500,
    "rey</w>": 5501,
    "kindergar": 5502,
    "hitler</w>": 5503,
    "provisions</w>": 5504,
    "profess": 5505,
    "wars</w>": 5506,
    "incumbent</w>": 5507,
    "contribute</w>": 5508,
    "jesus</w>": 5509,
    "ament</w>": 5510,
    "pp</w>": 5511,
    "kills</w>": 5512,
    "retire": 5513,
    "ninety</w>": 5514,
    "philadelphia</w>": 5515,
    "chuck</w>": 5516,
    "argu": 5517,
    "intelig": 5518,
    "kavanaugh</w>": 5519,
    "prison": 5520,
    "ears</w>": 5521,
    "payments</w>": 5522,
    "webster</w>": 5523,
    "automatic</w>": 5524,
    "condem": 5525,
    "ur</w>": 5526,
    "represent</w>": 5527,
    "entras</w>": 5528,
    "mismo</w>": 5529,
    "headed</w>": 5530,
    "latest</w>": 5531,
    "thought</w>": 5532,
    "sun</w>": 5533,
    "encing</w>": 5534,
    "fí": 5535,
    "arias</w>": 5536,
    "viet": 5537,
    "izes</w>": 5538,
    "actors</w>": 5539,
    "india</w>": 5540,
    "principal</w>": 5541,
    "llam": 5542,
    "addic": 5543,
    "thol": 5544,
    "discretionary</w>": 5545,
    "arily</w>": 5546,
    "views</w>": 5547,
    "challenger</w>": 5548,
    "wendy</w>": 5549,
    "angeles</w>": 5550,
    "dice</w>": 5551,
    "bic": 5552,
    "registr": 5553,
    "afford</w>": 5554,
    "picture</w>": 5555,
    "raid</w>": 5556,
    "pounds</w>": 5557,
    "lied</w>": 5558,
    "coalition</w>": 5559,
    "denunci": 5560,
    "unconstitutional</w>": 5561,
    "46</w>": 5562,
    "stands</w>": 5563,
    "rice</w>": 5564,
    "skyroc": 5565,
    "library</w>": 5566,
    "población</w>": 5567,
    "pren": 5568,
    "sán": 5569,
    "sánchez</w>": 5570,
    "hb</w>": 5571,
    "flopped</w>": 5572,
    "sitting</w>": 5573,
    "alive</w>": 5574,
    "customers</w>": 5575,
    "oversight</w>": 5576,
    "kentucky</w>": 5577,
    "earlier</w>": 5578,
    "posible</w>": 5579,
    "sky</w>": 5580,
    "tweeted</w>": 5581,
    "consistently</w>": 5582,
    "ala</w>": 5583,
    "aprob": 5584,
    "singer</w>": 5585,
    "function</w>": 5586,
    "facilities</w>": 5587,
    "dramatically</w>": 5588,
    "overha": 5589,
    "eding</w>": 5590,
    "ital</w>": 5591,
    "sat</w>": 5592,
    "harvey</w>": 5593,
    "ett</w>": 5594,
    "facility</w>": 5595,
    "damage</w>": 5596,
    "ratings</w>": 5597,
    "pain</w>": 5598,
    "kk": 5599,
    "experienced</w>": 5600,
    "aded</w>": 5601,
    "kindergarten</w>": 5602,
    "cat</w>": 5603,
    "blood</w>": 5604,
    "network</w>": 5605,
    "kelly</w>": 5606,
    "bin</w>": 5607,
    "difference</w>": 5608,
    "alled</w>": 5609,
    "goal</w>": 5610,
    "invas": 5611,
    "cigaret": 5612,
    "bit": 5613,
    "ahead</w>": 5614,
    "continues</w>": 5615,
    "newly</w>": 5616,
    "opin": 5617,
    "demanded</w>": 5618,
    "persons</w>": 5619,
    "positive</w>": 5620,
    "truck</w>": 5621,
    "art</w>": 5622,
    "camps</w>": 5623,
    "cards</w>": 5624,
    "smaller</w>": 5625,
    "tree</w>": 5626,
    "ara</w>": 5627,
    "clean": 5628,
    "hero": 5629,
    "mientras</w>": 5630,
    "heav": 5631,
    "gobiernos</w>": 5632,
    "dozen</w>": 5633,
    "maybe</w>": 5634,
    "pregnancy</w>": 5635,
    "couldnt</w>": 5636,
    "values</w>": 5637,
    "recru": 5638,
    "mitch</w>": 5639,
    "turnout</w>": 5640,
    "dayton</w>": 5641,
    "teenag": 5642,
    "adding</w>": 5643,
    "audit</w>": 5644,
    "aument": 5645,
    "ided</w>": 5646,
    "jimm": 5647,
    "toxic</w>": 5648,
    "usa</w>": 5649,
    "cathol": 5650,
    "peace</w>": 5651,
    "trill": 5652,
    "ora</w>": 5653,
    "borrowing</w>": 5654,
    "harv": 5655,
    "eating</w>": 5656,
    "kly</w>": 5657,
    "jos</w>": 5658,
    "williams</w>": 5659,
    "gel</w>": 5660,
    "river</w>": 5661,
    "gente</w>": 5662,
    "eisen": 5663,
    "internacional</w>": 5664,
    "cel": 5665,
    "uran": 5666,
    "vel": 5667,
    "bear</w>": 5668,
    "83</w>": 5669,
    "aca": 5670,
    "achievement</w>": 5671,
    "neighborhood</w>": 5672,
    "tempor": 5673,
    "agent</w>": 5674,
    "campaigning</w>": 5675,
    "limits</w>": 5676,
    "eds</w>": 5677,
    "homosex": 5678,
    "faced</w>": 5679,
    "acuerdo</w>": 5680,
    "investments</w>": 5681,
    "smoking</w>": 5682,
    "confederate</w>": 5683,
    "attend</w>": 5684,
    "swe": 5685,
    "2022</w>": 5686,
    "whit": 5687,
    "communist</w>": 5688,
    "cualqui": 5689,
    "cualquier</w>": 5690,
    "unlike</w>": 5691,
    "disney</w>": 5692,
    "científicos</w>": 5693,
    "actu": 5694,
    "daniel</w>": 5695,
    "kal": 5696,
    "technology</w>": 5697,
    "jefferson</w>": 5698,
    "broward</w>": 5699,
    "asking</w>": 5700,
    "itors</w>": 5701,
    "buffett</w>": 5702,
    "panel</w>": 5703,
    "aircraft</w>": 5704,
    "life": 5705,
    "éut": 5706,
    "harassment</w>": 5707,
    "fatalities</w>": 5708,
    "deport</w>": 5709,
    "reality</w>": 5710,
    "downtown</w>": 5711,
    "beha": 5712,
    "behavi": 5713,
    "style</w>": 5714,
    "gut": 5715,
    "mills</w>": 5716,
    "books</w>": 5717,
    "classified</w>": 5718,
    "grant</w>": 5719,
    "ard": 5720,
    "accident": 5721,
    "alls</w>": 5722,
    "rant</w>": 5723,
    "ath</w>": 5724,
    "pork</w>": 5725,
    "tech</w>": 5726,
    "mile</w>": 5727,
    "jam": 5728,
    "nueva</w>": 5729,
    "tory</w>": 5730,
    "leaves</w>": 5731,
    "lawyer</w>": 5732,
    "dej": 5733,
    "elev": 5734,
    "historia</w>": 5735,
    "figures</w>": 5736,
    "burden</w>": 5737,
    "institutions</w>": 5738,
    "arent</w>": 5739,
    "proposition</w>": 5740,
    "regulation</w>": 5741,
    "strang": 5742,
    "dewh": 5743,
    "dewhur": 5744,
    "ised</w>": 5745,
    "pushing</w>": 5746,
    "snow": 5747,
    "jol": 5748,
    "disapp": 5749,
    "conference</w>": 5750,
    "incomes</w>": 5751,
    "59</w>": 5752,
    "nig": 5753,
    "mandated</w>": 5754,
    "guaranteed</w>": 5755,
    "isión</w>": 5756,
    "jimmy</w>": 5757,
    "ji": 5758,
    "arch": 5759,
    "icing</w>": 5760,
    "australian</w>": 5761,
    "anes</w>": 5762,
    "organizations</w>": 5763,
    "corz": 5764,
    "llev": 5765,
    "lying</w>": 5766,
    "swimming</w>": 5767,
    "veteran</w>": 5768,
    "ably</w>": 5769,
    "lay</w>": 5770,
    "marines</w>": 5771,
    "experim": 5772,
    "meaning</w>": 5773,
    "funnel": 5774,
    "thousand</w>": 5775,
    "reserves</w>": 5776,
    "eisenhow": 5777,
    "eisenhower</w>": 5778,
    "exempt</w>": 5779,
    "uranium</w>": 5780,
    "mol": 5781,
    "dc</w>": 5782,
    "muerte</w>": 5783,
    "87</w>": 5784,
    "foot</w>": 5785,
    "enni": 5786,
    "lands</w>": 5787,
    "movement</w>": 5788,
    "acto</w>": 5789,
    "políticas</w>": 5790,
    "fallec": 5791,
    "assaulted</w>": 5792,
    "apple</w>": 5793,
    "deadly</w>": 5794,
    "connected</w>": 5795,
    "venez": 5796,
    "moment</w>": 5797,
    "diver": 5798,
    "ras</w>": 5799,
    "esp": 5800,
    "result": 5801,
    "believes</w>": 5802,
    "fas": 5803,
    "licensed</w>": 5804,
    "station</w>": 5805,
    "regulatory</w>": 5806,
    "contracep": 5807,
    "failing</w>": 5808,
    "fon": 5809,
    "council": 5810,
    "iliz": 5811,
    "diplom": 5812,
    "usa": 5813,
    "bullets</w>": 5814,
    "spoke</w>": 5815,
    "european</w>": 5816,
    "max": 5817,
    "reactions</w>": 5818,
    "disability</w>": 5819,
    "trou": 5820,
    "minority</w>": 5821,
    "gang</w>": 5822,
    "kpbs</w>": 5823,
    "detro": 5824,
    "detroit</w>": 5825,
    "identify</w>": 5826,
    "josh</w>": 5827,
    "challenge</w>": 5828,
    "mond</w>": 5829,
    "farmac": 5830,
    "prostit": 5831,
    "color</w>": 5832,
    "resig": 5833,
    "request</w>": 5834,
    "86</w>": 5835,
    "rural</w>": 5836,
    "stru": 5837,
    "mam": 5838,
    "personnel</w>": 5839,
    "appe": 5840,
    "arab</w>": 5841,
    "via</w>": 5842,
    "glen": 5843,
    "glenn</w>": 5844,
    "whites</w>": 5845,
    "anth": 5846,
    "device</w>": 5847,
    "conv": 5848,
    "operations</w>": 5849,
    "recovered</w>": 5850,
    "rock</w>": 5851,
    "gold": 5852,
    "floor</w>": 5853,
    "walking</w>": 5854,
    "suppl": 5855,
    "considering</w>": 5856,
    "proper</w>": 5857,
    "columb": 5858,
    "pak": 5859,
    "bankrupt</w>": 5860,
    "pens": 5861,
    "prote": 5862,
    "itor": 5863,
    "dewhurst</w>": 5864,
    "dosis</w>": 5865,
    "instein</w>": 5866,
    "explic": 5867,
    "betty</w>": 5868,
    "beliefs</w>": 5869,
    "inas</w>": 5870,
    "dozens</w>": 5871,
    "depres": 5872,
    "chose</w>": 5873,
    "stly</w>": 5874,
    "mast": 5875,
    "cos": 5876,
    "ky</w>": 5877,
    "judicial</w>": 5878,
    "corzine</w>": 5879,
    "often</w>": 5880,
    "analy": 5881,
    "ellos</w>": 5882,
    "ammun": 5883,
    "ammunition</w>": 5884,
    "unpreced": 5885,
    "unprecedented</w>": 5886,
    "harvard</w>": 5887,
    "recu": 5888,
    "sixth</w>": 5889,
    "dak": 5890,
    "user</w>": 5891,
    "apparently</w>": 5892,
    "rin": 5893,
    "fueron</w>": 5894,
    "chest": 5895,
    "cook": 5896,
    "ff</w>": 5897,
    "hass": 5898,
    "predat": 5899,
    "ibles</w>": 5900,
    "southwest</w>": 5901,
    "trem": 5902,
    "brother</w>": 5903,
    "mejor</w>": 5904,
    "seguridad</w>": 5905,
    "speak</w>": 5906,
    "fort</w>": 5907,
    "infec": 5908,
    "decrease</w>": 5909,
    "uring</w>": 5910,
    "nazi</w>": 5911,
    "ñas</w>": 5912,
    "ministerio</w>": 5913,
    "travis</w>": 5914,
    "sibility</w>": 5915,
    "proposals</w>": 5916,
    "treat</w>": 5917,
    "shou": 5918,
    "cler": 5919,
    "ong": 5920,
    "di</w>": 5921,
    "sixty</w>": 5922,
    "tourism</w>": 5923,
    "eros</w>": 5924,
    "repealing</w>": 5925,
    "documents</w>": 5926,
    "trol": 5927,
    "steel</w>": 5928,
    "amendments</w>": 5929,
    "homicide</w>": 5930,
    "eni": 5931,
    "boys</w>": 5932,
    "boy": 5933,
    "regular</w>": 5934,
    "ionally</w>": 5935,
    "cinco</w>": 5936,
    "transfer</w>": 5937,
    "eras</w>": 5938,
    "opened</w>": 5939,
    "vig": 5940,
    "eu</w>": 5941,
    "telling</w>": 5942,
    "syn": 5943,
    "harm</w>": 5944,
    "sund": 5945,
    "span": 5946,
    "valley</w>": 5947,
    "divor": 5948,
    "greenhouse</w>": 5949,
    "ifa</w>": 5950,
    "bit</w>": 5951,
    "represents</w>": 5952,
    "depend</w>": 5953,
    "toom": 5954,
    "toomey</w>": 5955,
    "king": 5956,
    "farmacéut": 5957,
    "vida</w>": 5958,
    "tica</w>": 5959,
    "toug": 5960,
    "equip": 5961,
    "iraq": 5962,
    "systems</w>": 5963,
    "behavior</w>": 5964,
    "plastic</w>": 5965,
    "elective</w>": 5966,
    "rifles</w>": 5967,
    "ace": 5968,
    "havent</w>": 5969,
    "airlines</w>": 5970,
    "lakes</w>": 5971,
    "korean</w>": 5972,
    "signat": 5973,
    "burn</w>": 5974,
    "carrying</w>": 5975,
    "nick</w>": 5976,
    "medios</w>": 5977,
    "64</w>": 5978,
    "blas": 5979,
    "failure</w>": 5980,
    "totally</w>": 5981,
    "bajo</w>": 5982,
    "okla": 5983,
    "oklahom": 5984,
    "opening</w>": 5985,
    "roe</w>": 5986,
    "married</w>": 5987,
    "nología</w>": 5988,
    "madison</w>": 5989,
    "medicam": 5990,
    "laborator": 5991,
    "ker": 5992,
    "weather</w>": 5993,
    "extreme</w>": 5994,
    "fifty</w>": 5995,
    "religion</w>": 5996,
    "nunn</w>": 5997,
    "vietnam</w>": 5998,
    "sentenced</w>": 5999,
    "wealthiest</w>": 6000,
    "incar": 6001,
    "incarcer": 6002,
    "collecting</w>": 6003,
    "peter": 6004,
    "charter</w>": 6005,
    "ods</w>": 6006,
    "deals</w>": 6007,
    "gran</w>": 6008,
    "fo</w>": 6009,
    "attend": 6010,
    "anch": 6011,
    "trillions</w>": 6012,
    "arts</w>": 6013,
    "theast</w>": 6014,
    "rely</w>": 6015,
    "automob": 6016,
    "stro</w>": 6017,
    "firm</w>": 6018,
    "ath": 6019,
    "cad": 6020,
    "hec": 6021,
    "funneled</w>": 6022,
    "captures</w>": 6023,
    "tampa</w>": 6024,
    "vin</w>": 6025,
    "meth": 6026,
    "market": 6027,
    "reta": 6028,
    "assassin": 6029,
    "memorial</w>": 6030,
    "raw</w>": 6031,
    "sear": 6032,
    "bid": 6033,
    "expres": 6034,
    "estadoun": 6035,
    "estadounid": 6036,
    "agreements</w>": 6037,
    "habr": 6038,
    "ancia</w>": 6039,
    "encontr": 6040,
    "alarm": 6041,
    "últimos</w>": 6042,
    "woo": 6043,
    "fet": 6044,
    "fortune</w>": 6045,
    "drunk</w>": 6046,
    "kim</w>": 6047,
    "algunos</w>": 6048,
    "frente</w>": 6049,
    "había</w>": 6050,
    "aming</w>": 6051,
    "superint": 6052,
    "superintend": 6053,
    "jennif": 6054,
    "jennifer</w>": 6055,
    "options</w>": 6056,
    "sevent": 6057,
    "provision</w>": 6058,
    "male</w>": 6059,
    "uncia</w>": 6060,
    "gonz": 6061,
    "gobern": 6062,
    "rare</w>": 6063,
    "muestra</w>": 6064,
    "institu": 6065,
    "eves</w>": 6066,
    "payment</w>": 6067,
    "strat": 6068,
    "mansion</w>": 6069,
    "cri": 6070,
    "firearm</w>": 6071,
    "homicides</w>": 6072,
    "contributed</w>": 6073,
    "boxer</w>": 6074,
    "devast": 6075,
    "ank</w>": 6076,
    "threatening</w>": 6077,
    "outsour": 6078,
    "itted</w>": 6079,
    "tener</w>": 6080,
    "inmun": 6081,
    "debido</w>": 6082,
    "chicken</w>": 6083,
    "successfully</w>": 6084,
    "ety</w>": 6085,
    "ku": 6086,
    "warned</w>": 6087,
    "fabric": 6088,
    "print</w>": 6089,
    "informe</w>": 6090,
    "cher</w>": 6091,
    "example</w>": 6092,
    "radio</w>": 6093,
    "retirees</w>": 6094,
    "1992</w>": 6095,
    "ideas</w>": 6096,
    "broken</w>": 6097,
    "passa": 6098,
    "kev": 6099,
    "kevin</w>": 6100,
    "flood</w>": 6101,
    "euthan": 6102,
    "bres</w>": 6103,
    "impe": 6104,
    "yland</w>": 6105,
    "secretly</w>": 6106,
    "consecutive</w>": 6107,
    "supplies</w>": 6108,
    "campus</w>": 6109,
    "che</w>": 6110,
    "spray</w>": 6111,
    "poor": 6112,
    "sement</w>": 6113,
    "columbia</w>": 6114,
    "diz": 6115,
    "heard</w>": 6116,
    "conduct</w>": 6117,
    "ab</w>": 6118,
    "charity</w>": 6119,
    "fed</w>": 6120,
    "kic": 6121,
    "scouts</w>": 6122,
    "xl</w>": 6123,
    "dirty</w>": 6124,
    "pilot</w>": 6125,
    "results</w>": 6126,
    "spok": 6127,
    "thomp": 6128,
    "ipping</w>": 6129,
    "earns</w>": 6130,
    "reforms</w>": 6131,
    "temperature</w>": 6132,
    "fíj": 6133,
    "fíjate</w>": 6134,
    "bien</w>": 6135,
    "encour": 6136,
    "ayed</w>": 6137,
    "colum": 6138,
    "requested</w>": 6139,
    "nada</w>": 6140,
    "trent": 6141,
    "trenton</w>": 6142,
    "collap": 6143,
    "pois": 6144,
    "ince</w>": 6145,
    "had": 6146,
    "itimate</w>": 6147,
    "vehicle</w>": 6148,
    "renacc": 6149,
    "ny": 6150,
    "adju": 6151,
    "artic": 6152,
    "challeng": 6153,
    "cop": 6154,
    "jer</w>": 6155,
    "110</w>": 6156,
    "admits</w>": 6157,
    "solution</w>": 6158,
    "ishment</w>": 6159,
    "collect</w>": 6160,
    "mind</w>": 6161,
    "mack</w>": 6162,
    "original</w>": 6163,
    "aw": 6164,
    "power": 6165,
    "attacking</w>": 6166,
    "perpe": 6167,
    "sue</w>": 6168,
    "renov": 6169,
    "tremendous</w>": 6170,
    "factor</w>": 6171,
    "bridges</w>": 6172,
    "fill</w>": 6173,
    "log</w>": 6174,
    "mann</w>": 6175,
    "oro</w>": 6176,
    "modif": 6177,
    "organización</w>": 6178,
    "fals": 6179,
    "pedro</w>": 6180,
    "público</w>": 6181,
    "otras</w>": 6182,
    "unified</w>": 6183,
    "performing</w>": 6184,
    "obtain</w>": 6185,
    "96</w>": 6186,
    "previously</w>": 6187,
    "superintendent</w>": 6188,
    "permit": 6189,
    "estar</w>": 6190,
    "perr": 6191,
    "perrys</w>": 6192,
    "pollution</w>": 6193,
    "parkland</w>": 6194,
    "ffs</w>": 6195,
    "credits</w>": 6196,
    "alo</w>": 6197,
    "88</w>": 6198,
    "itable</w>": 6199,
    "providing</w>": 6200,
    "desa": 6201,
    "hope</w>": 6202,
    "pomt</w>": 6203,
    "encu": 6204,
    "und</w>": 6205,
    "bid</w>": 6206,
    "argentina</w>": 6207,
    "israel": 6208,
    "deleted</w>": 6209,
    "extremists</w>": 6210,
    "inmates</w>": 6211,
    "germany</w>": 6212,
    "lived</w>": 6213,
    "trim": 6214,
    "throw": 6215,
    "powered</w>": 6216,
    "tied</w>": 6217,
    "investigadores</w>": 6218,
    "events</w>": 6219,
    "cycl": 6220,
    "adds</w>": 6221,
    "muchos</w>": 6222,
    "ann</w>": 6223,
    "advanced</w>": 6224,
    "specific</w>": 6225,
    "cart": 6226,
    "finger": 6227,
    "región</w>": 6228,
    "ajo</w>": 6229,
    "older</w>": 6230,
    "vag": 6231,
    "tony</w>": 6232,
    "freeze</w>": 6233,
    "victory</w>": 6234,
    "polling</w>": 6235,
    "nike</w>": 6236,
    "extending</w>": 6237,
    "changing</w>": 6238,
    "heroin</w>": 6239,
    "proof</w>": 6240,
    "negotiations</w>": 6241,
    "pakistan</w>": 6242,
    "pastor</w>": 6243,
    "louis": 6244,
    "headquarters</w>": 6245,
    "tou": 6246,
    "ígen": 6247,
    "aten</w>": 6248,
    "stream</w>": 6249,
    "superi": 6250,
    "dest</w>": 6251,
    "anda</w>": 6252,
    "screen</w>": 6253,
    "flu": 6254,
    "oye</w>": 6255,
    "piz": 6256,
    "filtr": 6257,
    "arrests</w>": 6258,
    "mostly</w>": 6259,
    "nowhere</w>": 6260,
    "willing</w>": 6261,
    "comments</w>": 6262,
    "alcan": 6263,
    "referend": 6264,
    "enem": 6265,
    "recib": 6266,
    "spi": 6267,
    "opio": 6268,
    "oso</w>": 6269,
    "fatal</w>": 6270,
    "exclus": 6271,
    "withdraw": 6272,
    "qualify</w>": 6273,
    "pool</w>": 6274,
    "shoc": 6275,
    "blow": 6276,
    "adult</w>": 6277,
    "onto</w>": 6278,
    "connie</w>": 6279,
    "cabin": 6280,
    "cabinet</w>": 6281,
    "hassan</w>": 6282,
    "andr": 6283,
    "agged</w>": 6284,
    "muertes</w>": 6285,
    "causa</w>": 6286,
    "destroyed</w>": 6287,
    "authored</w>": 6288,
    "document": 6289,
    "aplic": 6290,
    "proposing</w>": 6291,
    "seiz": 6292,
    "videos</w>": 6293,
    "formed</w>": 6294,
    "visited</w>": 6295,
    "set": 6296,
    "couples</w>": 6297,
    "toil": 6298,
    "ministro</w>": 6299,
    "algo</w>": 6300,
    "visa</w>": 6301,
    "forum</w>": 6302,
    "iance</w>": 6303,
    "kidnap": 6304,
    "barrow</w>": 6305,
    "farmers</w>": 6306,
    "ático</w>": 6307,
    "consumption</w>": 6308,
    "descubr": 6309,
    "radi": 6310,
    "delivers</w>": 6311,
    "strateg": 6312,
    "resign</w>": 6313,
    "performed</w>": 6314,
    "corporation</w>": 6315,
    "ization</w>": 6316,
    "suspected</w>": 6317,
    "holly": 6318,
    "hollywood</w>": 6319,
    "affili": 6320,
    "smu": 6321,
    "ggling</w>": 6322,
    "overhaul</w>": 6323,
    "socialist</w>": 6324,
    "ian": 6325,
    "appropriations</w>": 6326,
    "fell</w>": 6327,
    "hispanics</w>": 6328,
    "sses</w>": 6329,
    "races</w>": 6330,
    "sust": 6331,
    "clev": 6332,
    "angel": 6333,
    "phil</w>": 6334,
    "kkk</w>": 6335,
    "dió</w>": 6336,
    "gen</w>": 6337,
    "demos</w>": 6338,
    "¡</w>": 6339,
    "ric</w>": 6340,
    "after": 6341,
    "otherwise</w>": 6342,
    "pete</w>": 6343,
    "targeting</w>": 6344,
    "practice</w>": 6345,
    "margin</w>": 6346,
    "opportunities</w>": 6347,
    "hoods</w>": 6348,
    "deploy": 6349,
    "industri": 6350,
    "role</w>": 6351,
    "aer": 6352,
    "avi": 6353,
    "sha</w>": 6354,
    "tend": 6355,
    "designed</w>": 6356,
    "eler": 6357,
    "removing</w>": 6358,
    "shirt</w>": 6359,
    "newspaper</w>": 6360,
    "item</w>": 6361,
    "bushs</w>": 6362,
    "inging</w>": 6363,
    "nominees</w>": 6364,
    "chair</w>": 6365,
    "fulton</w>": 6366,
    "ashes</w>": 6367,
    "material</w>": 6368,
    "seventy</w>": 6369,
    "equality</w>": 6370,
    "frankl": 6371,
    "franklin</w>": 6372,
    "edo</w>": 6373,
    "propag": 6374,
    "oklahoma</w>": 6375,
    "decline</w>": 6376,
    "prisons</w>": 6377,
    "mention</w>": 6378,
    "alan</w>": 6379,
    "sut": 6380,
    "sutton</w>": 6381,
    "maxed</w>": 6382,
    "thompson</w>": 6383,
    "approve</w>": 6384,
    "eared</w>": 6385,
    "virti": 6386,
    "reasons</w>": 6387,
    "kerry</w>": 6388,
    "foreclo": 6389,
    "contracts</w>": 6390,
    "push</w>": 6391,
    "ude</w>": 6392,
    "hoy</w>": 6393,
    "grande</w>": 6394,
    "emente</w>": 6395,
    "detect": 6396,
    "alcanz": 6397,
    "referendum</w>": 6398,
    "lando</w>": 6399,
    "wish</w>": 6400,
    "islands</w>": 6401,
    "depu": 6402,
    "infant</w>": 6403,
    "elds</w>": 6404,
    "georgians</w>": 6405,
    "nixon</w>": 6406,
    "ál": 6407,
    "enter</w>": 6408,
    "unpopular</w>": 6409,
    "weight</w>": 6410,
    "pedi": 6411,
    "martial</w>": 6412,
    "mujer</w>": 6413,
    "contam": 6414,
    "restrictions</w>": 6415,
    "entire": 6416,
    "music</w>": 6417,
    "realidad</w>": 6418,
    "happening</w>": 6419,
    "greatest</w>": 6420,
    "harder</w>": 6421,
    "ays</w>": 6422,
    "red": 6423,
    "brain</w>": 6424,
    "iranian</w>": 6425,
    "minent</w>": 6426,
    "kne": 6427,
    "helping</w>": 6428,
    "manten": 6429,
    "server</w>": 6430,
    "highway</w>": 6431,
    "implement</w>": 6432,
    "ebr": 6433,
    "lux": 6434,
    "foun": 6435,
    "prou": 6436,
    "osa</w>": 6437,
    "nú": 6438,
    "directed</w>": 6439,
    "genet": 6440,
    "vest</w>": 6441,
    "datab": 6442,
    "tiemp": 6443,
    "tiempo</w>": 6444,
    "cuenta</w>": 6445,
    "ll": 6446,
    "proy": 6447,
    "uss</w>": 6448,
    "appeared</w>": 6449,
    "rich": 6450,
    "aches</w>": 6451,
    "succe": 6452,
    "gift</w>": 6453,
    "filibu": 6454,
    "áticos</w>": 6455,
    "winning</w>": 6456,
    "husse": 6457,
    "hussein</w>": 6458,
    "dijo</w>": 6459,
    "absor": 6460,
    "mico</w>": 6461,
    "kir": 6462,
    "defend</w>": 6463,
    "podría</w>": 6464,
    "horas</w>": 6465,
    "stol": 6466,
    "stolen</w>": 6467,
    "werent</w>": 6468,
    "uries</w>": 6469,
    "knows</w>": 6470,
    "spanish</w>": 6471,
    "fundrais": 6472,
    "carroll</w>": 6473,
    "rd</w>": 6474,
    "courts</w>": 6475,
    "dispu": 6476,
    "campaigned</w>": 6477,
    "cz": 6478,
    "porting</w>": 6479,
    "corn</w>": 6480,
    "olym": 6481,
    "olymp": 6482,
    "pledged</w>": 6483,
    "outsourcing</w>": 6484,
    "oregons</w>": 6485,
    "therhood</w>": 6486,
    "enjo": 6487,
    "graphy</w>": 6488,
    "scientific</w>": 6489,
    "manufacturers</w>": 6490,
    "covers</w>": 6491,
    "1999</w>": 6492,
    "tested</w>": 6493,
    "asses": 6494,
    "offers</w>": 6495,
    "viewed</w>": 6496,
    "conflict</w>": 6497,
    "insp": 6498,
    "argum": 6499,
    "esca": 6500,
    "ownership</w>": 6501,
    "qualified</w>": 6502,
    "participating</w>": 6503,
    "passage</w>": 6504,
    "commonly</w>": 6505,
    "echos</w>": 6506,
    "ault</w>": 6507,
    "ín</w>": 6508,
    "económic": 6509,
    "bringing</w>": 6510,
    "congressmen</w>": 6511,
    "fined</w>": 6512,
    "lers</w>": 6513,
    "mark": 6514,
    "enter": 6515,
    "delegates</w>": 6516,
    "nings</w>": 6517,
    "icious</w>": 6518,
    "incre": 6519,
    "louisiana</w>": 6520,
    "virginias</w>": 6521,
    "prefer": 6522,
    "skin</w>": 6523,
    "workplace</w>": 6524,
    "hecho</w>": 6525,
    "tecnología</w>": 6526,
    "conver": 6527,
    "manager</w>": 6528,
    "oxide</w>": 6529,
    "males</w>": 6530,
    "menende": 6531,
    "friday</w>": 6532,
    "barely</w>": 6533,
    "oficial</w>": 6534,
    "horri": 6535,
    "parli": 6536,
    "guarantee</w>": 6537,
    "conducted</w>": 6538,
    "jones</w>": 6539,
    "rent</w>": 6540,
    "delay</w>": 6541,
    "adjusted</w>": 6542,
    "earmark</w>": 6543,
    "redistric": 6544,
    "redistricting</w>": 6545,
    "ultras": 6546,
    "boat</w>": 6547,
    "medida</w>": 6548,
    "automobile</w>": 6549,
    "todd</w>": 6550,
    "recuper": 6551,
    "hell</w>": 6552,
    "categ": 6553,
    "safest</w>": 6554,
    "breast</w>": 6555,
    "complete</w>": 6556,
    "dakota</w>": 6557,
    "mal</w>": 6558,
    "resist": 6559,
    "malia</w>": 6560,
    "longest</w>": 6561,
    "vuel": 6562,
    "froz": 6563,
    "ilit": 6564,
    "ceos</w>": 6565,
    "etes</w>": 6566,
    "prosecuted</w>": 6567,
    "hiring</w>": 6568,
    "russians</w>": 6569,
    "stu": 6570,
    "sel</w>": 6571,
    "mountain</w>": 6572,
    "predec": 6573,
    "ución</w>": 6574,
    "prosecut": 6575,
    "present</w>": 6576,
    "initiative</w>": 6577,
    "wildlife</w>": 6578,
    "tic</w>": 6579,
    "ló": 6580,
    "lópez</w>": 6581,
    "investigated</w>": 6582,
    "roo": 6583,
    "lugar</w>": 6584,
    "09</w>": 6585,
    "mediante</w>": 6586,
    "backs</w>": 6587,
    "ningún</w>": 6588,
    "propor": 6589,
    "vul": 6590,
    "drunken</w>": 6591,
    "ble": 6592,
    "chosen</w>": 6593,
    "database</w>": 6594,
    "promoting</w>": 6595,
    "93</w>": 6596,
    "eno</w>": 6597,
    "mensa": 6598,
    "municip": 6599,
    "tain": 6600,
    "pets</w>": 6601,
    "eded</w>": 6602,
    "opposition</w>": 6603,
    "whom</w>": 6604,
    "feb</w>": 6605,
    "stein</w>": 6606,
    "ush</w>": 6607,
    "73</w>": 6608,
    "lobby</w>": 6609,
    "present": 6610,
    "enes</w>": 6611,
    "conclud": 6612,
    "hawa": 6613,
    "conclus": 6614,
    "cambi": 6615,
    "limited</w>": 6616,
    "bacter": 6617,
    "dici": 6618,
    "spot": 6619,
    "collected</w>": 6620,
    "executives</w>": 6621,
    "felon</w>": 6622,
    "dict": 6623,
    "gie</w>": 6624,
    "fuentes</w>": 6625,
    "nivel</w>": 6626,
    "economía</w>": 6627,
    "plum": 6628,
    "negative</w>": 6629,
    "bey": 6630,
    "perform</w>": 6631,
    "kur": 6632,
    "antifa</w>": 6633,
    "kingston</w>": 6634,
    "porno": 6635,
    "edad</w>": 6636,
    "pump</w>": 6637,
    "referring</w>": 6638,
    "advertising</w>": 6639,
    "final</w>": 6640,
    "comenz": 6641,
    "stabbed</w>": 6642,
    "humans</w>": 6643,
    "animal</w>": 6644,
    "cuc": 6645,
    "cuccin": 6646,
    "fly</w>": 6647,
    "opponents</w>": 6648,
    "presented</w>": 6649,
    "escaped</w>": 6650,
    "anthony</w>": 6651,
    "brazil</w>": 6652,
    "izer</w>": 6653,
    "turns</w>": 6654,
    "wiped</w>": 6655,
    "inteligencia</w>": 6656,
    "brett</w>": 6657,
    "prisoners</w>": 6658,
    "privacy</w>": 6659,
    "far": 6660,
    "sells</w>": 6661,
    "happy</w>": 6662,
    "sters</w>": 6663,
    "legislator</w>": 6664,
    "difer": 6665,
    "sest": 6666,
    "sestak</w>": 6667,
    "gru": 6668,
    "ambas": 6669,
    "ambassad": 6670,
    "fires</w>": 6671,
    "opping</w>": 6672,
    "orum</w>": 6673,
    "doors</w>": 6674,
    "gry</w>": 6675,
    "charles</w>": 6676,
    "span</w>": 6677,
    "stronger</w>": 6678,
    "schult": 6679,
    "schultz</w>": 6680,
    "described</w>": 6681,
    "statements</w>": 6682,
    "menendez</w>": 6683,
    "manufactured</w>": 6684,
    "logr": 6685,
    "kay</w>": 6686,
    "covering</w>": 6687,
    "ground": 6688,
    "ukra": 6689,
    "centro</w>": 6690,
    "requests</w>": 6691,
    "haiti</w>": 6692,
    "entered</w>": 6693,
    "returning</w>": 6694,
    "sites</w>": 6695,
    "mate</w>": 6696,
    "epi": 6697,
    "sburg</w>": 6698,
    "efficiency</w>": 6699,
    "overwhelming</w>": 6700,
    "habit": 6701,
    "adic": 6702,
    "exact</w>": 6703,
    "article</w>": 6704,
    "decide</w>": 6705,
    "teaching</w>": 6706,
    "immediate</w>": 6707,
    "bad": 6708,
    "street": 6709,
    "fda</w>": 6710,
    "latin</w>": 6711,
    "healthy</w>": 6712,
    "tele": 6713,
    "rolls</w>": 6714,
    "spoken</w>": 6715,
    "blocking</w>": 6716,
    "atlant": 6717,
    "ared</w>": 6718,
    "plant": 6719,
    "favor": 6720,
    "machines</w>": 6721,
    "berry</w>": 6722,
    "mar</w>": 6723,
    "location</w>": 6724,
    "athlet": 6725,
    "kitz": 6726,
    "respect</w>": 6727,
    "wis</w>": 6728,
    "coca": 6729,
    "missis": 6730,
    "mississi": 6731,
    "mississipp": 6732,
    "mississippi</w>": 6733,
    "campaigns</w>": 6734,
    "owed</w>": 6735,
    "posts</w>": 6736,
    "ambi": 6737,
    "owes</w>": 6738,
    "friend": 6739,
    "roose": 6740,
    "roosevel": 6741,
    "roosevelt</w>": 6742,
    "gallons</w>": 6743,
    "featuring</w>": 6744,
    "scale</w>": 6745,
    "wounded</w>": 6746,
    "deep</w>": 6747,
    "tag</w>": 6748,
    "ig</w>": 6749,
    "bonuses</w>": 6750,
    "mall</w>": 6751,
    "stro": 6752,
    "spread</w>": 6753,
    "stealing</w>": 6754,
    "represented</w>": 6755,
    "cory</w>": 6756,
    "holdings</w>": 6757,
    "endorsing</w>": 6758,
    "joined</w>": 6759,
    "fren": 6760,
    "renewable</w>": 6761,
    "recom": 6762,
    "semanas</w>": 6763,
    "natur": 6764,
    "unos</w>": 6765,
    "injuries</w>": 6766,
    "paper": 6767,
    "tonight</w>": 6768,
    "sunday</w>": 6769,
    "maggie</w>": 6770,
    "itorial</w>": 6771,
    "nbc</w>": 6772,
    "player</w>": 6773,
    "bil": 6774,
    "simpson</w>": 6775,
    "conspiracy</w>": 6776,
    "survivor</w>": 6777,
    "ifies</w>": 6778,
    "shahe": 6779,
    "shaheen</w>": 6780,
    "79</w>": 6781,
    "toda</w>": 6782,
    "brotherhood</w>": 6783,
    "sett": 6784,
    "mcdon": 6785,
    "sider</w>": 6786,
    "silent</w>": 6787,
    "surpassed</w>": 6788,
    "hospitales</w>": 6789,
    "expertos</w>": 6790,
    "podemos</w>": 6791,
    "ticos</w>": 6792,
    "permits</w>": 6793,
    "society</w>": 6794,
    "migrants</w>": 6795,
    "observ": 6796,
    "reed</w>": 6797,
    "estimate</w>": 6798,
    "addressed</w>": 6799,
    "cuccinelli</w>": 6800,
    "exist</w>": 6801,
    "neutr": 6802,
    "deported</w>": 6803,
    "neighborhoods</w>": 6804,
    "various</w>": 6805,
    "nonprofit</w>": 6806,
    "ounce</w>": 6807,
    "queen</w>": 6808,
    "debates</w>": 6809,
    "alber": 6810,
    "carried</w>": 6811,
    "accidentally</w>": 6812,
    "grow</w>": 6813,
    "warrant</w>": 6814,
    "ap</w>": 6815,
    "enforced</w>": 6816,
    "asia</w>": 6817,
    "inte": 6818,
    "pf": 6819,
    "pfizer</w>": 6820,
    "flags</w>": 6821,
    "clip</w>": 6822,
    "californias</w>": 6823,
    "bought</w>": 6824,
    "anon": 6825,
    "slash</w>": 6826,
    "raping</w>": 6827,
    "ician</w>": 6828,
    "1950</w>": 6829,
    "rigged</w>": 6830,
    "secreto</w>": 6831,
    "opar": 6832,
    "plag": 6833,
    "womens</w>": 6834,
    "entry</w>": 6835,
    "opinion</w>": 6836,
    "embass": 6837,
    "tah</w>": 6838,
    "wi</w>": 6839,
    "var": 6840,
    "planet</w>": 6841,
    "tura</w>": 6842,
    "ral": 6843,
    "releasing</w>": 6844,
    "officially</w>": 6845,
    "dream": 6846,
    "hide</w>": 6847,
    "depression</w>": 6848,
    "rejected</w>": 6849,
    "deductions</w>": 6850,
    "cerem": 6851,
    "works</w>": 6852,
    "bilities</w>": 6853,
    "my": 6854,
    "holes</w>": 6855,
    "strickland</w>": 6856,
    "poco</w>": 6857,
    "tamente</w>": 6858,
    "pendi": 6859,
    "iraqi</w>": 6860,
    "alex": 6861,
    "straus</w>": 6862,
    "parliament</w>": 6863,
    "cha": 6864,
    "sud": 6865,
    "foster</w>": 6866,
    "stayed</w>": 6867,
    "fin</w>": 6868,
    "ferg": 6869,
    "fergus": 6870,
    "ferguson</w>": 6871,
    "orlando</w>": 6872,
    "volun": 6873,
    "rand</w>": 6874,
    "prince</w>": 6875,
    "mid</w>": 6876,
    "renacci</w>": 6877,
    "wik": 6878,
    "edes</w>": 6879,
    "opioid</w>": 6880,
    "vaccines</w>": 6881,
    "catholic</w>": 6882,
    "ysis</w>": 6883,
    "towards</w>": 6884,
    "gerald</w>": 6885,
    "enfermedades</w>": 6886,
    "guess</w>": 6887,
    "ques</w>": 6888,
    "ete</w>": 6889,
    "fifteen</w>": 6890,
    "streetcar</w>": 6891,
    "africans</w>": 6892,
    "arena</w>": 6893,
    "ocean</w>": 6894,
    "atención</w>": 6895,
    "cheating</w>": 6896,
    "accepting</w>": 6897,
    "minute</w>": 6898,
    "dico</w>": 6899,
    "alize</w>": 6900,
    "rel</w>": 6901,
    "spokes": 6902,
    "irma</w>": 6903,
    "pelig": 6904,
    "earners</w>": 6905,
    "quito</w>": 6906,
    "tanto</w>": 6907,
    "argued</w>": 6908,
    "expense</w>": 6909,
    "ign": 6910,
    "spl": 6911,
    "waste": 6912,
    "detaine": 6913,
    "thank": 6914,
    "adjust": 6915,
    "exter": 6916,
    "egy": 6917,
    "backlog</w>": 6918,
    "utility</w>": 6919,
    "independence</w>": 6920,
    "meter</w>": 6921,
    "estadounidense</w>": 6922,
    "offender</w>": 6923,
    "manif": 6924,
    "comunic": 6925,
    "itation</w>": 6926,
    "borrowed</w>": 6927,
    "openly</w>": 6928,
    "reb": 6929,
    "suprem": 6930,
    "acist</w>": 6931,
    "deliber": 6932,
    "sí</w>": 6933,
    "financing</w>": 6934,
    "toilet</w>": 6935,
    "seats</w>": 6936,
    "dam</w>": 6937,
    "bach": 6938,
    "informó</w>": 6939,
    "resultados</w>": 6940,
    "require": 6941,
    "substantial</w>": 6942,
    "keted</w>": 6943,
    "pes</w>": 6944,
    "políticos</w>": 6945,
    "cifras</w>": 6946,
    "gard": 6947,
    "apart": 6948,
    "hiz": 6949,
    "económica</w>": 6950,
    "defund</w>": 6951,
    "dekal": 6952,
    "dekalb</w>": 6953,
    "inting</w>": 6954,
    "satis": 6955,
    "historical</w>": 6956,
    "justices</w>": 6957,
    "retired</w>": 6958,
    "hear</w>": 6959,
    "rels</w>": 6960,
    "actress</w>": 6961,
    "improve</w>": 6962,
    "hackers</w>": 6963,
    "restore</w>": 6964,
    "whatso": 6965,
    "whatsoever</w>": 6966,
    "visitors</w>": 6967,
    "understand</w>": 6968,
    "cleveland</w>": 6969,
    "restrictive</w>": 6970,
    "próximo</w>": 6971,
    "smart</w>": 6972,
    "owe</w>": 6973,
    "lifetime</w>": 6974,
    "olds</w>": 6975,
    "jeanne</w>": 6976,
    "grup": 6977,
    "homeowners</w>": 6978,
    "tenure</w>": 6979,
    "disgr": 6980,
    "respir": 6981,
    "todas</w>": 6982,
    "universidad</w>": 6983,
    "revers": 6984,
    "ella</w>": 6985,
    "leads</w>": 6986,
    "surpris": 6987,
    "chers</w>": 6988,
    "drop": 6989,
    "tores</w>": 6990,
    "1993</w>": 6991,
    "concluded</w>": 6992,
    "ifying</w>": 6993,
    "ciudad": 6994,
    "edas</w>": 6995,
    "type</w>": 6996,
    "link</w>": 6997,
    "ders</w>": 6998,
    "industrialized</w>": 6999,
    "ryans</w>": 7000,
    "paint</w>": 7001,
    "soc": 7002,
    "connection</w>": 7003,
    "integr": 7004,
    "pen</w>": 7005,
    "compensation</w>": 7006,
    "teor": 7007,
    "deser": 7008,
    "jacket</w>": 7009,
    "enero</w>": 7010,
    "lunes</w>": 7011,
    "guil": 7012,
    "bonds</w>": 7013,
    "amazing</w>": 7014,
    "half": 7015,
    "classroom</w>": 7016,
    "tered</w>": 7017,
    "cats</w>": 7018,
    "nego": 7019,
    "surv": 7020,
    "chances</w>": 7021,
    "industries</w>": 7022,
    "aug</w>": 7023,
    "banco</w>": 7024,
    "julie</w>": 7025,
    "jackson</w>": 7026,
    "franken</w>": 7027,
    "abil": 7028,
    "públicamente</w>": 7029,
    "edge</w>": 7030,
    "jeopar": 7031,
    "inted</w>": 7032,
    "earth": 7033,
    "design": 7034,
    "embassy</w>": 7035,
    "utah</w>": 7036,
    "connect": 7037,
    "santorum</w>": 7038,
    "gripe</w>": 7039,
    "vacancy</w>": 7040,
    "menores</w>": 7041,
    "lah</w>": 7042,
    "tommy</w>": 7043,
    "rud": 7044,
    "detention</w>": 7045,
    "committees</w>": 7046,
    "fluor": 7047,
    "justin</w>": 7048,
    "fines</w>": 7049,
    "medicamentos</w>": 7050,
    "shark</w>": 7051,
    "slow</w>": 7052,
    "ledge</w>": 7053,
    "britain</w>": 7054,
    "niños</w>": 7055,
    "rend": 7056,
    "compart": 7057,
    "lunch</w>": 7058,
    "ride</w>": 7059,
    "igo</w>": 7060,
    "nonpartisan</w>": 7061,
    "cannab": 7062,
    "jolly</w>": 7063,
    "reserv": 7064,
    "exactly</w>": 7065,
    "lesbi": 7066,
    "square</w>": 7067,
    "desarroll": 7068,
    "night": 7069,
    "jobless</w>": 7070,
    "penalties</w>": 7071,
    "applied</w>": 7072,
    "maps</w>": 7073,
    "tan</w>": 7074,
    "liqu": 7075,
    "disastr": 7076,
    "disastrous</w>": 7077,
    "ác": 7078,
    "va": 7079,
    "chel": 7080,
    "chelsea</w>": 7081,
    "offensive</w>": 7082,
    "sino</w>": 7083,
    "porter</w>": 7084,
    "yne</w>": 7085,
    "íc": 7086,
    "civilian</w>": 7087,
    "billionaire</w>": 7088,
    "poorest</w>": 7089,
    "ticket</w>": 7090,
    "world": 7091,
    "worldwide</w>": 7092,
    "iza</w>": 7093,
    "hner</w>": 7094,
    "castro</w>": 7095,
    "dave</w>": 7096,
    "conservatives</w>": 7097,
    "ycare</w>": 7098,
    "médico</w>": 7099,
    "sle": 7100,
    "entirely</w>": 7101,
    "ionship</w>": 7102,
    "shrin": 7103,
    "uk</w>": 7104,
    "imientos</w>": 7105,
    "perfect</w>": 7106,
    "fresh": 7107,
    "kitzhaber</w>": 7108,
    "íst": 7109,
    "advisers</w>": 7110,
    "ho</w>": 7111,
    "ivamente</w>": 7112,
    "dedicated</w>": 7113,
    "misleading</w>": 7114,
    "wives</w>": 7115,
    "heck</w>": 7116,
    "contact</w>": 7117,
    "audi": 7118,
    "powerful</w>": 7119,
    "cocaine</w>": 7120,
    "dra</w>": 7121,
    "knew</w>": 7122,
    "laun": 7123,
    "lawyers</w>": 7124,
    "detainees</w>": 7125,
    "seek</w>": 7126,
    "inju": 7127,
    "injured</w>": 7128,
    "marry</w>": 7129,
    "neum": 7130,
    "criticizing</w>": 7131,
    "academic</w>": 7132,
    "setting</w>": 7133,
    "lies</w>": 7134,
    "convers": 7135,
    "latino": 7136,
    "entas</w>": 7137,
    "wisconsinites</w>": 7138,
    "igle": 7139,
    "perio": 7140,
    "sy</w>": 7141,
    "chamber</w>": 7142,
    "destroying</w>": 7143,
    "comunidad</w>": 7144,
    "lifting</w>": 7145,
    "donate</w>": 7146,
    "05</w>": 7147,
    "drink</w>": 7148,
    "clerk</w>": 7149,
    "mca": 7150,
    "mcaul": 7151,
    "mcauliff": 7152,
    "cast": 7153,
    "acces": 7154,
    "luego</w>": 7155,
    "lu</w>": 7156,
    "requirements</w>": 7157,
    "tari": 7158,
    "mosque</w>": 7159,
    "pinellas</w>": 7160,
    "dealing</w>": 7161,
    "broad": 7162,
    "ionary</w>": 7163,
    "blamed</w>": 7164,
    "amen": 7165,
    "quí": 7166,
    "ethan": 7167,
    "ethanol</w>": 7168,
    "lements</w>": 7169,
    "contribution</w>": 7170,
    "hen": 7171,
    "imag": 7172,
    "ril</w>": 7173,
    "especi": 7174,
    "admit</w>": 7175,
    "nad": 7176,
    "carl</w>": 7177,
    "treatments</w>": 7178,
    "begich</w>": 7179,
    "processing</w>": 7180,
    "fron": 7181,
    "inta</w>": 7182,
    "edy</w>": 7183,
    "ibility</w>": 7184,
    "adam</w>": 7185,
    "eness</w>": 7186,
    "rour": 7187,
    "rourke</w>": 7188,
    "editorial</w>": 7189,
    "barrels</w>": 7190,
    "hope": 7191,
    "simul": 7192,
    "racked</w>": 7193,
    "thrown</w>": 7194,
    "commitment</w>": 7195,
    "sharing</w>": 7196,
    "daca</w>": 7197,
    "klan</w>": 7198,
    "grupo</w>": 7199,
    "ocup": 7200,
    "pues</w>": 7201,
    "proved</w>": 7202,
    "dely</w>": 7203,
    "loaded</w>": 7204,
    "worl": 7205,
    "worlds</w>": 7206,
    "ivity</w>": 7207,
    "eous</w>": 7208,
    "eful</w>": 7209,
    "stic": 7210,
    "iene</w>": 7211,
    "adamente</w>": 7212,
    "sexually</w>": 7213,
    "treaty</w>": 7214,
    "confirms</w>": 7215,
    "ileg": 7216,
    "fest": 7217,
    "flu</w>": 7218,
    "sewer</w>": 7219,
    "domin": 7220,
    "confisc": 7221,
    "deployed</w>": 7222,
    "empty</w>": 7223,
    "top": 7224,
    "rush</w>": 7225,
    "host": 7226,
    "encial</w>": 7227,
    "kae": 7228,
    "kaeper": 7229,
    "kaepernick</w>": 7230,
    "ue": 7231,
    "lawsuits</w>": 7232,
    "maron</w>": 7233,
    "04</w>": 7234,
    "christine</w>": 7235,
    "terri": 7236,
    "corrid": 7237,
    "gill": 7238,
    "compris": 7239,
    "voice</w>": 7240,
    "surge</w>": 7241,
    "reproductive</w>": 7242,
    "harm": 7243,
    "recycl": 7244,
    "side": 7245,
    "crashes</w>": 7246,
    "environment</w>": 7247,
    "further</w>": 7248,
    "sets</w>": 7249,
    "rá": 7250,
    "provoc": 7251,
    "aumento</w>": 7252,
    "earthqu": 7253,
    "ambassador</w>": 7254,
    "mon</w>": 7255,
    "defeat</w>": 7256,
    "bee": 7257,
    "iro": 7258,
    "nd</w>": 7259,
    "cuer": 7260,
    "ries": 7261,
    "estudios</w>": 7262,
    "emple": 7263,
    "mostr": 7264,
    "wasser": 7265,
    "wasserman</w>": 7266,
    "dioxide</w>": 7267,
    "london</w>": 7268,
    "energía</w>": 7269,
    "ól": 7270,
    "boston</w>": 7271,
    "ultim": 7272,
    "passen": 7273,
    "passenger</w>": 7274,
    "tripled</w>": 7275,
    "sures</w>": 7276,
    "grocery</w>": 7277,
    "​</w>": 7278,
    "shouldn</w>": 7279,
    "canceled</w>": 7280,
    "want": 7281,
    "depos": 7282,
    "incident</w>": 7283,
    "imon": 7284,
    "details</w>": 7285,
    "cannabis</w>": 7286,
    "attempts</w>": 7287,
    "farms</w>": 7288,
    "established</w>": 7289,
    "towns</w>": 7290,
    "award</w>": 7291,
    "ular</w>": 7292,
    "laden</w>": 7293,
    "gore</w>": 7294,
    "angle</w>": 7295,
    "eat</w>": 7296,
    "dreamers</w>": 7297,
    "aks</w>": 7298,
    "truc": 7299,
    "boc": 7300,
    "analysis</w>": 7301,
    "controvers": 7302,
    "gutted</w>": 7303,
    "acion": 7304,
    "clothing</w>": 7305,
    "input</w>": 7306,
    "ecu": 7307,
    "invest</w>": 7308,
    "equipment</w>": 7309,
    "refugee</w>": 7310,
    "oversaw</w>": 7311,
    "gado</w>": 7312,
    "feed</w>": 7313,
    "cdc</w>": 7314,
    "diversity</w>": 7315,
    "prop</w>": 7316,
    "bomb</w>": 7317,
    "newborn</w>": 7318,
    "georgias</w>": 7319,
    "classrooms</w>": 7320,
    "nutr": 7321,
    "pacs</w>": 7322,
    "located</w>": 7323,
    "fields</w>": 7324,
    "purchased</w>": 7325,
    "uales</w>": 7326,
    "ind": 7327,
    "ashing</w>": 7328,
    "reduces</w>": 7329,
    "advocate</w>": 7330,
    "pill</w>": 7331,
    "grandes</w>": 7332,
    "filner</w>": 7333,
    "barri": 7334,
    "laugh": 7335,
    "shi": 7336,
    "legitimate</w>": 7337,
    "divis": 7338,
    "rank</w>": 7339,
    "resolution</w>": 7340,
    "treats</w>": 7341,
    "cops</w>": 7342,
    "lab</w>": 7343,
    "practices</w>": 7344,
    "publicly</w>": 7345,
    "friendly</w>": 7346,
    "answer</w>": 7347,
    "compare</w>": 7348,
    "sentences</w>": 7349,
    "thanks": 7350,
    "thanksgiving</w>": 7351,
    "midwest</w>": 7352,
    "submitted</w>": 7353,
    "siem": 7354,
    "founder</w>": 7355,
    "1996</w>": 7356,
    "recient": 7357,
    "través</w>": 7358,
    "madrid</w>": 7359,
    "photos</w>": 7360,
    "oper</w>": 7361,
    "supremacist</w>": 7362,
    "dinner</w>": 7363,
    "parking</w>": 7364,
    "starbucks</w>": 7365,
    "grades</w>": 7366,
    "colombi": 7367,
    "destruction</w>": 7368,
    "treasur": 7369,
    "je</w>": 7370,
    "path": 7371,
    "antic": 7372,
    "cha</w>": 7373,
    "revista</w>": 7374,
    "ections</w>": 7375,
    "regime</w>": 7376,
    "promote</w>": 7377,
    "eller</w>": 7378,
    "councilman</w>": 7379,
    "kus": 7380,
    "shoes</w>": 7381,
    "1978</w>": 7382,
    "learn</w>": 7383,
    "distributed</w>": 7384,
    "else": 7385,
    "elsewhere</w>": 7386,
    "coca</w>": 7387,
    "schedule</w>": 7388,
    "circum": 7389,
    "determined</w>": 7390,
    "tip</w>": 7391,
    "acade": 7392,
    "academy</w>": 7393,
    "coment": 7394,
    "sibly</w>": 7395,
    "surveill": 7396,
    "worn</w>": 7397,
    "inely</w>": 7398,
    "inal</w>": 7399,
    "plaz": 7400,
    "participation</w>": 7401,
    "welcome</w>": 7402,
    "ku</w>": 7403,
    "klu": 7404,
    "klux</w>": 7405,
    "urban</w>": 7406,
    "richmond</w>": 7407,
    "cán": 7408,
    "cold</w>": 7409,
    "pornography</w>": 7410,
    "falls</w>": 7411,
    "adolf</w>": 7412,
    "believed</w>": 7413,
    "pines</w>": 7414,
    "medidas</w>": 7415,
    "legalizing</w>": 7416,
    "pell</w>": 7417,
    "kil": 7418,
    "ery</w>": 7419,
    "sar</w>": 7420,
    "affir": 7421,
    "wouldnt</w>": 7422,
    "nuestro</w>": 7423,
    "channel</w>": 7424,
    "verse</w>": 7425,
    "invasion</w>": 7426,
    "whatsa": 7427,
    "whatsapp</w>": 7428,
    "relations</w>": 7429,
    "france</w>": 7430,
    "paris</w>": 7431,
    "white": 7432,
    "wore</w>": 7433,
    "sym": 7434,
    "slave</w>": 7435,
    "fert": 7436,
    "dealers</w>": 7437,
    "colin</w>": 7438,
    "schum": 7439,
    "schumer</w>": 7440,
    "pace</w>": 7441,
    "east": 7442,
    "usan</w>": 7443,
    "anonym": 7444,
    "ming": 7445,
    "revo": 7446,
    "recount</w>": 7447,
    "weren</w>": 7448,
    "siendo</w>": 7449,
    "millenni": 7450,
    "default</w>": 7451,
    "bis": 7452,
    "hearings</w>": 7453,
    "maryland</w>": 7454,
    "log": 7455,
    "hair</w>": 7456,
    "accom": 7457,
    "accommo": 7458,
    "legalization</w>": 7459,
    "casino</w>": 7460,
    "político</w>": 7461,
    "harmful</w>": 7462,
    "planeta</w>": 7463,
    "entitled</w>": 7464,
    "partners</w>": 7465,
    "structural</w>": 7466,
    "saves</w>": 7467,
    "connectic": 7468,
    "unked</w>": 7469,
    "invers": 7470,
    "staffers</w>": 7471,
    "tas": 7472,
    "there": 7473,
    "ralph</w>": 7474,
    "error</w>": 7475,
    "roy": 7476,
    "affected</w>": 7477,
    "pizza</w>": 7478,
    "versus</w>": 7479,
    "pir": 7480,
    "nigeria</w>": 7481,
    "refl": 7482,
    "ceremony</w>": 7483,
    "forest</w>": 7484,
    "siles</w>": 7485,
    "departments</w>": 7486,
    "ukraine</w>": 7487,
    "petitions</w>": 7488,
    "caso</w>": 7489,
    "ow</w>": 7490,
    "substance</w>": 7491,
    "focused</w>": 7492,
    "qued": 7493,
    "runs</w>": 7494,
    "stories</w>": 7495,
    "rout": 7496,
    "dod": 7497,
    "wright</w>": 7498,
    "jihad": 7499,
    "celebrate</w>": 7500,
    "uela</w>": 7501,
    "acknow": 7502,
    "jewish</w>": 7503,
    "accompl": 7504,
    "inter</w>": 7505,
    "kins</w>": 7506,
    "huck": 7507,
    "huckab": 7508,
    "huckabee</w>": 7509,
    "toll</w>": 7510,
    "properly</w>": 7511,
    "stole</w>": 7512,
    "millionaire</w>": 7513,
    "+</w>": 7514,
    "disclose</w>": 7515,
    "objet": 7516,
    "alle": 7517,
    "practicing</w>": 7518,
    "representing</w>": 7519,
    "lak": 7520,
    "driven</w>": 7521,
    "icop": 7522,
    "tells</w>": 7523,
    "filing</w>": 7524,
    "harris</w>": 7525,
    "alien</w>": 7526,
    "cancelled</w>": 7527,
    "comerci": 7528,
    "authorities</w>": 7529,
    "barrel</w>": 7530,
    "él</w>": 7531,
    "ars</w>": 7532,
    "otros</w>": 7533,
    "casa</w>": 7534,
    "drove</w>": 7535,
    "1986</w>": 7536,
    "astro": 7537,
    "performance</w>": 7538,
    "ima</w>": 7539,
    "veces</w>": 7540,
    "bran": 7541,
    "casi</w>": 7542,
    "diab": 7543,
    "diabetes</w>": 7544,
    "mom</w>": 7545,
    "onas</w>": 7546,
    "dropping</w>": 7547,
    "mascarillas</w>": 7548,
    "nin": 7549,
    "ordinary</w>": 7550,
    "predecess": 7551,
    "déc": 7552,
    "mantener</w>": 7553,
    "wasteful</w>": 7554,
    "hypo": 7555,
    "84</w>": 7556,
    "lined</w>": 7557,
    "manuel</w>": 7558,
    "allig": 7559,
    "luxury</w>": 7560,
    "ted": 7561,
    "drone</w>": 7562,
    "finally</w>": 7563,
    "techn": 7564,
    "institution</w>": 7565,
    "eleph": 7566,
    "elephant</w>": 7567,
    "aseguró</w>": 7568,
    "nombre</w>": 7569,
    "sias</w>": 7570,
    "ner": 7571,
    "tip": 7572,
    "tipo</w>": 7573,
    "meant</w>": 7574,
    "wilson</w>": 7575,
    "cram": 7576,
    "áb": 7577,
    "umul": 7578,
    "offense</w>": 7579,
    "flooding</w>": 7580,
    "occupy</w>": 7581,
    "responsibility</w>": 7582,
    "tment</w>": 7583,
    "octu": 7584,
    "octubre</w>": 7585,
    "puesta</w>": 7586,
    "cem": 7587,
    "terry</w>": 7588,
    "mcauliffe</w>": 7589,
    "ballots</w>": 7590,
    "exports</w>": 7591,
    "questioning</w>": 7592,
    "abandoned</w>": 7593,
    "susan</w>": 7594,
    "quad": 7595,
    "quadru": 7596,
    "quadrupled</w>": 7597,
    "nake</w>": 7598,
    "say": 7599,
    "medal</w>": 7600,
    "oficialmente</w>": 7601,
    "nit": 7602,
    "07</w>": 7603,
    "amenaz": 7604,
    "71</w>": 7605,
    "items</w>": 7606,
    "recon": 7607,
    "arán</w>": 7608,
    "ayud": 7609,
    "vice": 7610,
    "destin": 7611,
    "dadelivers</w>": 7612,
    "generation</w>": 7613,
    "pink</w>": 7614,
    "consider</w>": 7615,
    "1982</w>": 7616,
    "israeli</w>": 7617,
    "pti": 7618,
    "cola</w>": 7619,
    "interven": 7620,
    "iveness</w>": 7621,
    "morgan</w>": 7622,
    "predators</w>": 7623,
    "beto</w>": 7624,
    "contributor</w>": 7625,
    "sworn</w>": 7626,
    "160</w>": 7627,
    "theor": 7628,
    "fundraising</w>": 7629,
    "generated</w>": 7630,
    "studios</w>": 7631,
    "oregon": 7632,
    "rival</w>": 7633,
    "mans</w>": 7634,
    "wasnt</w>": 7635,
    "entitlement</w>": 7636,
    "eligibility</w>": 7637,
    "texting</w>": 7638,
    "diag": 7639,
    "recur": 7640,
    "demuestra</w>": 7641,
    "draw</w>": 7642,
    "ayot": 7643,
    "ayotte</w>": 7644,
    "const": 7645,
    "kath": 7646,
    "leen</w>": 7647,
    "holder</w>": 7648,
    "pockets</w>": 7649,
    "responded</w>": 7650,
    "tribun": 7651,
    "ogra": 7652,
    "occur</w>": 7653,
    "yan": 7654,
    "pharm": 7655,
    "steps</w>": 7656,
    "vier": 7657,
    "harb": 7658,
    "billionaires</w>": 7659,
    "extend</w>": 7660,
    "likes</w>": 7661,
    "mobile</w>": 7662,
    "founded</w>": 7663,
    "inici": 7664,
    "sigu": 7665,
    "anonymous</w>": 7666,
    "incorpor": 7667,
    "fraud": 7668,
    "coach</w>": 7669,
    "millennials</w>": 7670,
    "stead": 7671,
    "recording</w>": 7672,
    "member": 7673,
    "membership</w>": 7674,
    "authorized</w>": 7675,
    "mount</w>": 7676,
    "text": 7677,
    "outlaw</w>": 7678,
    "choices</w>": 7679,
    "canadians</w>": 7680,
    "continued</w>": 7681,
    "hedge</w>": 7682,
    "trading</w>": 7683,
    "ráp": 7684,
    "eleven</w>": 7685,
    "icals</w>": 7686,
    "connecticut</w>": 7687,
    "note</w>": 7688,
    "exception</w>": 7689,
    "cual</w>": 7690,
    "whale</w>": 7691,
    "astron": 7692,
    "grounds</w>": 7693,
    "muestran</w>": 7694,
    "ello</w>": 7695,
    "py": 7696,
    "inner</w>": 7697,
    "plot</w>": 7698,
    "prom": 7699,
    "ultimately</w>": 7700,
    "multi</w>": 7701,
    "drawn</w>": 7702,
    "denuncia</w>": 7703,
    "desarrollo</w>": 7704,
    "gina</w>": 7705,
    "horribly</w>": 7706,
    "iant</w>": 7707,
    "rushed</w>": 7708,
    "disabilities</w>": 7709,
    "verify</w>": 7710,
    "abolish</w>": 7711,
    "brad": 7712,
    "obese</w>": 7713,
    "khan</w>": 7714,
    "acias</w>": 7715,
    "meg": 7716,
    "event": 7717,
    "lobbi": 7718,
    "lobbied</w>": 7719,
    "deliver</w>": 7720,
    "becomes</w>": 7721,
    "amientos</w>": 7722,
    "lowering</w>": 7723,
    "ulty</w>": 7724,
    "1968</w>": 7725,
    "quer": 7726,
    "stan": 7727,
    "newar": 7728,
    "newark</w>": 7729,
    "particularly</w>": 7730,
    "obes": 7731,
    "drome</w>": 7732,
    "volunte": 7733,
    "winter</w>": 7734,
    "lau": 7735,
    "handling</w>": 7736,
    "recipient</w>": 7737,
    "spike</w>": 7738,
    "restor": 7739,
    "wikile": 7740,
    "wikileaks</w>": 7741,
    "procedures</w>": 7742,
    "zo</w>": 7743,
    "conten": 7744,
    "promoted</w>": 7745,
    "lec": 7746,
    "reform": 7747,
    "154</w>": 7748,
    "toughest</w>": 7749,
    "features</w>": 7750,
    "reporters</w>": 7751,
    "orient": 7752,
    "hagel</w>": 7753,
    "benjam": 7754,
    "benjamin</w>": 7755,
    "cliff</w>": 7756,
    "raz": 7757,
    "investigación</w>": 7758,
    "suspect</w>": 7759,
    "pieces</w>": 7760,
    "plagi": 7761,
    "inger</w>": 7762,
    "helicop": 7763,
    "marketplaces</w>": 7764,
    "marta</w>": 7765,
    "recibi": 7766,
    "hondur": 7767,
    "analysts</w>": 7768,
    "suffer</w>": 7769,
    "dia</w>": 7770,
    "fox": 7771,
    "prueba</w>": 7772,
    "sey</w>": 7773,
    "barred</w>": 7774,
    "demostr": 7775,
    "chips</w>": 7776,
    "dad": 7777,
    "comey</w>": 7778,
    "ela</w>": 7779,
    "pad": 7780,
    "trend</w>": 7781,
    "grat": 7782,
    "amazon</w>": 7783,
    "switch</w>": 7784,
    "shutting</w>": 7785,
    "lgbt</w>": 7786,
    "victor": 7787,
    "supu": 7788,
    "mosquito</w>": 7789,
    "370</w>": 7790,
    "operation</w>": 7791,
    "tat": 7792,
    "advisory</w>": 7793,
    "granite</w>": 7794,
    "fracking</w>": 7795,
    "testify</w>": 7796,
    "andy</w>": 7797,
    "tasa</w>": 7798,
    "chester</w>": 7799,
    "steal</w>": 7800,
    "heads</w>": 7801,
    "gays</w>": 7802,
    "describes</w>": 7803,
    "michele</w>": 7804,
    "bachmann</w>": 7805,
    "inflación</w>": 7806,
    "monter": 7807,
    "ninth</w>": 7808,
    "cotton</w>": 7809,
    "716</w>": 7810,
    "anded</w>": 7811,
    "bow</w>": 7812,
    "criticized</w>": 7813,
    "ichs</w>": 7814,
    "spr": 7815,
    "maternity</w>": 7816,
    "arc": 7817,
    "accurately</w>": 7818,
    "andrés</w>": 7819,
    "siempre</w>": 7820,
    "dado</w>": 7821,
    "assassination</w>": 7822,
    "dw": 7823,
    "technical</w>": 7824,
    "haw": 7825,
    "fuels</w>": 7826,
    "compromise</w>": 7827,
    "tes": 7828,
    "ampl": 7829,
    "aban</w>": 7830,
    "formación</w>": 7831,
    "prensa</w>": 7832,
    "mó": 7833,
    "manifest": 7834,
    "pab": 7835,
    "concentr": 7836,
    "idencia</w>": 7837,
    "aborted</w>": 7838,
    "blew</w>": 7839,
    "beating</w>": 7840,
    "embr": 7841,
    "orn</w>": 7842,
    "birth": 7843,
    "hombre</w>": 7844,
    "bod": 7845,
    "isa": 7846,
    "certain": 7847,
    "certainly</w>": 7848,
    "baseb": 7849,
    "baseball</w>": 7850,
    "tariffs</w>": 7851,
    "stal": 7852,
    "charitable</w>": 7853,
    "fred": 7854,
    "acceso</w>": 7855,
    "auditor</w>": 7856,
    "checked</w>": 7857,
    "nan": 7858,
    "get": 7859,
    "angs</w>": 7860,
    "campaña</w>": 7861,
    "descubrieron</w>": 7862,
    "charac": 7863,
    "erie</w>": 7864,
    "hawaii</w>": 7865,
    "tratamiento</w>": 7866,
    "respecto</w>": 7867,
    "eza</w>": 7868,
    "haci": 7869,
    "resource</w>": 7870,
    "participate</w>": 7871,
    "fail</w>": 7872,
    "spotted</w>": 7873,
    "latino</w>": 7874,
    "edin</w>": 7875,
    "edition</w>": 7876,
    "statue</w>": 7877,
    "coke</w>": 7878,
    "maxine</w>": 7879,
    "detail</w>": 7880,
    "migration</w>": 7881,
    "missile</w>": 7882,
    "satell": 7883,
    "divorce</w>": 7884,
    "advocating</w>": 7885,
    "dec</w>": 7886,
    "digital</w>": 7887,
    "possibly</w>": 7888,
    "flint</w>": 7889,
    "91</w>": 7890,
    "postal</w>": 7891,
    "losses</w>": 7892,
    "ups</w>": 7893,
    "iranians</w>": 7894,
    "confin": 7895,
    "attempting</w>": 7896,
    "kurt</w>": 7897,
    "damaged</w>": 7898,
    "inequality</w>": 7899,
    "cruise</w>": 7900,
    "anger</w>": 7901,
    "gained</w>": 7902,
    "motorcycl": 7903,
    "cion": 7904,
    "segund": 7905,
    "tad</w>": 7906,
    "kathleen</w>": 7907,
    "gor": 7908,
    "myst": 7909,
    "prop": 7910,
    "mad</w>": 7911,
    "guerra</w>": 7912,
    "reproduces</w>": 7913,
    "suggests</w>": 7914,
    "cure</w>": 7915,
    "cameras</w>": 7916,
    "curso</w>": 7917,
    "cigarettes</w>": 7918,
    "saben</w>": 7919,
    "erman</w>": 7920,
    "contraception</w>": 7921,
    "assad</w>": 7922,
    "caucus</w>": 7923,
    "file</w>": 7924,
    "marked</w>": 7925,
    "hostages</w>": 7926,
    "rum": 7927,
    "08</w>": 7928,
    "committing</w>": 7929,
    "dino</w>": 7930,
    "potentially</w>": 7931,
    "gain</w>": 7932,
    "abril</w>": 7933,
    "uras</w>": 7934,
    "guilty</w>": 7935,
    "bases</w>": 7936,
    "blasey</w>": 7937,
    "alert</w>": 7938,
    "terrible</w>": 7939,
    "dow</w>": 7940,
    "corridor</w>": 7941,
    "nesses</w>": 7942,
    "alism</w>": 7943,
    "revolution</w>": 7944,
    "search</w>": 7945,
    "endorsement</w>": 7946,
    "overwhelm": 7947,
    "overwhelmingly</w>": 7948,
    "screenings</w>": 7949,
    "experts</w>": 7950,
    "onies</w>": 7951,
    "athe": 7952,
    "exchanges</w>": 7953,
    "scheduled</w>": 7954,
    "earthquake</w>": 7955,
    "rolling</w>": 7956,
    "helps</w>": 7957,
    "locate</w>": 7958,
    "supervisor</w>": 7959,
    "marsh": 7960,
    "touch</w>": 7961,
    "kee": 7962,
    "cuerpo</w>": 7963,
    "humanos</w>": 7964,
    "sín": 7965,
    "batt": 7966,
    "spree</w>": 7967,
    "tasas</w>": 7968,
    "whist": 7969,
    "rudy</w>": 7970,
    "corrup": 7971,
    "06</w>": 7972,
    "donor</w>": 7973,
    "miss</w>": 7974,
    "refusing</w>": 7975,
    "documentos</w>": 7976,
    "acres</w>": 7977,
    "bench</w>": 7978,
    "inaction</w>": 7979,
    "ials</w>": 7980,
    "burning</w>": 7981,
    "105</w>": 7982,
    "aced</w>": 7983,
    "iffs</w>": 7984,
    "ached</w>": 7985,
    "lesbian</w>": 7986,
    "artifici": 7987,
    "mista": 7988,
    "proto": 7989,
    "uro</w>": 7990,
    "venezuela</w>": 7991,
    "motorists</w>": 7992,
    "socialists</w>": 7993,
    "horr": 7994,
    "acer": 7995,
    "lin</w>": 7996,
    "agr": 7997,
    "afirm": 7998,
    "import</w>": 7999,
    "momento</w>": 8000,
    "mont</w>": 8001,
    "insider</w>": 8002,
    "ograf": 8003,
    "bri": 8004,
    "manera</w>": 8005,
    "skip</w>": 8006,
    "eman</w>": 8007,
    "crashed</w>": 8008,
    "algu": 8009,
    "algui": 8010,
    "alguien</w>": 8011,
    "vouchers</w>": 8012,
    "rescue</w>": 8013,
    "teenager</w>": 8014,
    "northeast</w>": 8015,
    "ólogos</w>": 8016,
    "org</w>": 8017,
    "chile</w>": 8018,
    "developing</w>": 8019,
    "struck</w>": 8020,
    "eye</w>": 8021,
    "pill": 8022,
    "profes": 8023,
    "barn": 8024,
    "dly</w>": 8025,
    "season</w>": 8026,
    "mixed</w>": 8027,
    "unt</w>": 8028,
    "category</w>": 8029,
    "cuban</w>": 8030,
    "dee": 8031,
    "deem": 8032,
    "enfr": 8033,
    "pediat": 8034,
    "quic": 8035,
    "estr": 8036,
    "li</w>": 8037,
    "trá": 8038,
    "custo": 8039,
    "tape</w>": 8040,
    "protecting</w>": 8041,
    "prosecution</w>": 8042,
    "sends</w>": 8043,
    "pier": 8044,
    "catal": 8045,
    "fy</w>": 8046,
    "mismanaged</w>": 8047,
    "tenido</w>": 8048,
    "ises</w>": 8049,
    "herself</w>": 8050,
    "clubs</w>": 8051,
    "slashing</w>": 8052,
    "instituto</w>": 8053,
    "dna</w>": 8054,
    "halfway</w>": 8055,
    "replacing</w>": 8056,
    "emisiones</w>": 8057,
    "round</w>": 8058,
    "lange": 8059,
    "langevin</w>": 8060,
    "persona</w>": 8061,
    "expectancy</w>": 8062,
    "suffered</w>": 8063,
    "escu": 8064,
    "cerebr": 8065,
    "chap": 8066,
    "viern": 8067,
    "viernes</w>": 8068,
    "jord": 8069,
    "anál": 8070,
    "análisis</w>": 8071,
    "settle</w>": 8072,
    "particular</w>": 8073,
    "surveillance</w>": 8074,
    "atlantic</w>": 8075,
    "basket": 8076,
    "basketball</w>": 8077,
    "constitu": 8078,
    "holid": 8079,
    "handguns</w>": 8080,
    "reporter</w>": 8081,
    "coffee</w>": 8082,
    "dewine</w>": 8083,
    "violated</w>": 8084,
    "engin": 8085,
    "brian</w>": 8086,
    "décadas</w>": 8087,
    "seguir</w>": 8088,
    "contributing</w>": 8089,
    "petition</w>": 8090,
    "improving</w>": 8091,
    "repar": 8092,
    "regional</w>": 8093,
    "interior</w>": 8094,
    "1973</w>": 8095,
    "proud</w>": 8096,
    "pocket</w>": 8097,
    "chev": 8098,
    "enza</w>": 8099,
    "neumon": 8100,
    "ún": 8101,
    "mero</w>": 8102,
    "dwight</w>": 8103,
    "second": 8104,
    "although</w>": 8105,
    "anders</w>": 8106,
    "coordin": 8107,
    "latinoameric": 8108,
    "atos</w>": 8109,
    "controlar</w>": 8110,
    "obby</w>": 8111,
    "español</w>": 8112,
    "establish</w>": 8113,
    "ounding</w>": 8114,
    "scam": 8115,
    "coinc": 8116,
    "len": 8117,
    "homosexual</w>": 8118,
    "suspended</w>": 8119,
    "soda</w>": 8120,
    "suggesting</w>": 8121,
    "unknown</w>": 8122,
    "imos</w>": 8123,
    "enton": 8124,
    "entonces</w>": 8125,
    "endido</w>": 8126,
    "improved</w>": 8127,
    "demonstrated</w>": 8128,
    "partido</w>": 8129,
    "ye": 8130,
    "dar</w>": 8131,
    "altered</w>": 8132,
    "lemi": 8133,
    "lemieu": 8134,
    "lemieux</w>": 8135,
    "staged</w>": 8136,
    "immun": 8137,
    "pound</w>": 8138,
    "mont": 8139,
    "phoeni": 8140,
    "phoenix</w>": 8141,
    "prevention</w>": 8142,
    "negotiating</w>": 8143,
    "freddie</w>": 8144,
    "mac</w>": 8145,
    "carson</w>": 8146,
    "gambling</w>": 8147,
    "finances</w>": 8148,
    "upon</w>": 8149,
    "alerta</w>": 8150,
    "ejecut": 8151,
    "pressure</w>": 8152,
    "hizo</w>": 8153,
    "jueves</w>": 8154,
    "dema": 8155,
    "demaio</w>": 8156,
    "violations</w>": 8157,
    "tons</w>": 8158,
    "violation</w>": 8159,
    "invited</w>": 8160,
    "diciembre</w>": 8161,
    "votos</w>": 8162,
    "counts</w>": 8163,
    "walked</w>": 8164,
    "closure</w>": 8165,
    "muse": 8166,
    "aide</w>": 8167,
    "fence</w>": 8168,
    "congresswoman</w>": 8169,
    "fix": 8170,
    "union": 8171,
    "matt": 8172,
    "declaration</w>": 8173,
    "devastating</w>": 8174,
    "competitive</w>": 8175,
    "ave</w>": 8176,
    "450</w>": 8177,
    "greene</w>": 8178,
    "económico</w>": 8179,
    "cantor</w>": 8180,
    "resem": 8181,
    "younger</w>": 8182,
    "anese</w>": 8183,
    "count": 8184,
    "relatively</w>": 8185,
    "oregonians</w>": 8186,
    "mcdonn": 8187,
    "substantially</w>": 8188,
    "mañ": 8189,
    "ila</w>": 8190,
    "fortun": 8191,
    "cord": 8192,
    "vet</w>": 8193,
    "osama</w>": 8194,
    "oo</w>": 8195,
    "maternal</w>": 8196,
    "warner</w>": 8197,
    "lord</w>": 8198,
    "estu": 8199,
    "electronic</w>": 8200,
    "popu": 8201,
    "purchasing</w>": 8202,
    "leans</w>": 8203,
    "contained</w>": 8204,
    "blank</w>": 8205,
    "thirty</w>": 8206,
    "existence</w>": 8207,
    "facts</w>": 8208,
    "soccer</w>": 8209,
    "unless</w>": 8210,
    "ección</w>": 8211,
    "trail</w>": 8212,
    "revolut": 8213,
    "nov</w>": 8214,
    "fla</w>": 8215,
    "theft</w>": 8216,
    "gm</w>": 8217,
    "sponsor</w>": 8218,
    "negoci": 8219,
    "hombres</w>": 8220,
    "novi": 8221,
    "bra</w>": 8222,
    "alta</w>": 8223,
    "dfl</w>": 8224,
    "legalized</w>": 8225,
    "moderate</w>": 8226,
    "announcement</w>": 8227,
    "referred</w>": 8228,
    "ele</w>": 8229,
    "retire</w>": 8230,
    "mercur": 8231,
    "ícul": 8232,
    "bike</w>": 8233,
    "chemicals</w>": 8234,
    "premat": 8235,
    "uniforms</w>": 8236,
    "delta</w>": 8237,
    "scotts</w>": 8238,
    "viene</w>": 8239,
    "ígeno</w>": 8240,
    "metropolit": 8241,
    "fool": 8242,
    "imminent</w>": 8243,
    "acqu": 8244,
    "ograph": 8245,
    "pop</w>": 8246,
    "theat": 8247,
    "capacity</w>": 8248,
    "ptly</w>": 8249,
    "negotiated</w>": 8250,
    "bags</w>": 8251,
    "cornyn</w>": 8252,
    "knowledge</w>": 8253,
    "definition</w>": 8254,
    "usion</w>": 8255,
    "viable</w>": 8256,
    "title</w>": 8257,
    "repealed</w>": 8258,
    "falling</w>": 8259,
    "apoyo</w>": 8260,
    "pointed</w>": 8261,
    "apy</w>": 8262,
    "sheriffs</w>": 8263,
    "lieut": 8264,
    "lieuten": 8265,
    "sable</w>": 8266,
    "trata</w>": 8267,
    "hut": 8268,
    "machine</w>": 8269,
    "violating</w>": 8270,
    "140</w>": 8271,
    "veto</w>": 8272,
    "deportation</w>": 8273,
    "raided</w>": 8274,
    "supple": 8275,
    "bodies</w>": 8276,
    "birther</w>": 8277,
    "acre</w>": 8278,
    "text</w>": 8279,
    "obesity</w>": 8280,
    "syndrome</w>": 8281,
    "flow</w>": 8282,
    "unsafe</w>": 8283,
    "ko</w>": 8284,
    "sugar</w>": 8285,
    "trucks</w>": 8286,
    "addiction</w>": 8287,
    "168</w>": 8288,
    "imposing</w>": 8289,
    "hurricanes</w>": 8290,
    "bras": 8291,
    "aa</w>": 8292,
    "abc</w>": 8293,
    "ática</w>": 8294,
    "holders</w>": 8295,
    "vapor": 8296,
    "bradley</w>": 8297,
    "bb": 8298,
    "firing</w>": 8299,
    "erty</w>": 8300,
    "strangulation</w>": 8301,
    "instal": 8302,
    "counsel": 8303,
    "orientation</w>": 8304,
    "itis</w>": 8305,
    "riding</w>": 8306,
    "usar</w>": 8307,
    "kander</w>": 8308,
    "ré": 8309,
    "laz": 8310,
    "reconoc": 8311,
    "kid</w>": 8312,
    "rounds</w>": 8313,
    "hero</w>": 8314,
    "plagiariz": 8315,
    "tour</w>": 8316,
    "mascarilla</w>": 8317,
    "combat": 8318,
    "además</w>": 8319,
    "howard</w>": 8320,
    "mayoría</w>": 8321,
    "pruebas</w>": 8322,
    "ohio": 8323,
    "ohioans</w>": 8324,
    "ultrasound</w>": 8325,
    "glor": 8326,
    "barnes</w>": 8327,
    "trees</w>": 8328,
    "boe": 8329,
    "boehner</w>": 8330,
    "touch": 8331,
    "jor": 8332,
    "messages</w>": 8333,
    "implementation</w>": 8334,
    "fru": 8335,
    "corrections</w>": 8336,
    "barnett</w>": 8337,
    "propi": 8338,
    "ume</w>": 8339,
    "pull</w>": 8340,
    "sharp": 8341,
    "650</w>": 8342,
    "normal</w>": 8343,
    "pulled</w>": 8344,
    "nature</w>": 8345,
    "balls</w>": 8346,
    "alz": 8347,
    "youtu": 8348,
    "anter": 8349,
    "frozen</w>": 8350,
    "week": 8351,
    "ali</w>": 8352,
    "grupos</w>": 8353,
    "ows</w>": 8354,
    "jet": 8355,
    "ocult": 8356,
    "aper</w>": 8357,
    "landing</w>": 8358,
    "cargo</w>": 8359,
    "photographed</w>": 8360,
    "transpar": 8361,
    "diffic": 8362,
    "difficult</w>": 8363,
    "viet</w>": 8364,
    "illy</w>": 8365,
    "fic": 8366,
    "acio</w>": 8367,
    "cookies</w>": 8368,
    "recibir</w>": 8369,
    "apar": 8370,
    "ifi": 8371,
    "celebrities</w>": 8372,
    "tenth</w>": 8373,
    "holidays</w>": 8374,
    "range</w>": 8375,
    "wn</w>": 8376,
    "ohios</w>": 8377,
    "graphic</w>": 8378,
    "rador</w>": 8379,
    "pron": 8380,
    "asyl": 8381,
    "número</w>": 8382,
    "incentive</w>": 8383,
    "270</w>": 8384,
    "accounted</w>": 8385,
    "arían</w>": 8386,
    "flies</w>": 8387,
    "wolf</w>": 8388,
    "iglesias</w>": 8389,
    "appearance</w>": 8390,
    "anunció</w>": 8391,
    "anderson</w>": 8392,
    "exag": 8393,
    "seizure</w>": 8394,
    "subsidy</w>": 8395,
    "staying</w>": 8396,
    "deliberately</w>": 8397,
    "extran": 8398,
    "extranjer": 8399,
    "rocket</w>": 8400,
    "ceme": 8401,
    "rodr": 8402,
    "presidenta</w>": 8403,
    "renewal</w>": 8404,
    "ax</w>": 8405,
    "sweden</w>": 8406,
    "02</w>": 8407,
    "fewest</w>": 8408,
    "stroke</w>": 8409,
    "tance</w>": 8410,
    "corp</w>": 8411,
    "iry</w>": 8412,
    "purpose</w>": 8413,
    "investors</w>": 8414,
    "classes</w>": 8415,
    "unión</w>": 8416,
    "hallo": 8417,
    "halloween</w>": 8418,
    "originally</w>": 8419,
    "acle</w>": 8420,
    "deterr": 8421,
    "document</w>": 8422,
    "junto</w>": 8423,
    "ást": 8424,
    "transfer": 8425,
    "feminista</w>": 8426,
    "averaged</w>": 8427,
    "targets</w>": 8428,
    "huma</w>": 8429,
    "abedin</w>": 8430,
    "ri</w>": 8431,
    "circumst": 8432,
    "register</w>": 8433,
    "quit": 8434,
    "catch</w>": 8435,
    "compact</w>": 8436,
    "clun": 8437,
    "czech</w>": 8438,
    "blind</w>": 8439,
    "sli": 8440,
    "leon": 8441,
    "bunch</w>": 8442,
    "exceeded</w>": 8443,
    "olympic</w>": 8444,
    "mandel</w>": 8445,
    "pants</w>": 8446,
    "shortfall</w>": 8447,
    "cierto</w>": 8448,
    "isnt</w>": 8449,
    "tering</w>": 8450,
    "japanese</w>": 8451,
    "tickets</w>": 8452,
    "situación</w>": 8453,
    "doubt</w>": 8454,
    "bureaucrat</w>": 8455,
    "carto": 8456,
    "difficul": 8457,
    "professional</w>": 8458,
    "parental</w>": 8459,
    "importante</w>": 8460,
    "yours</w>": 8461,
    "treasurer</w>": 8462,
    "sión</w>": 8463,
    "generate</w>": 8464,
    "dropout</w>": 8465,
    "trial</w>": 8466,
    "bel</w>": 8467,
    "customs</w>": 8468,
    "preocup": 8469,
    "gonna</w>": 8470,
    "handel</w>": 8471,
    "mech": 8472,
    "mechan": 8473,
    "ector</w>": 8474,
    "orleans</w>": 8475,
    "map</w>": 8476,
    "00": 8477,
    "1995</w>": 8478,
    "completed</w>": 8479,
    "install": 8480,
    "purposes</w>": 8481,
    "bernar": 8482,
    "fasc": 8483,
    "manufacturer</w>": 8484,
    "shared</w>": 8485,
    "anny</w>": 8486,
    "obtained</w>": 8487,
    "fans</w>": 8488,
    "fundam": 8489,
    "oming</w>": 8490,
    "empresa</w>": 8491,
    "ingre": 8492,
    "snap": 8493,
    "turkey</w>": 8494,
    "noviembre</w>": 8495,
    "congreso</w>": 8496,
    "guev": 8497,
    "apprehen": 8498,
    "legalize</w>": 8499,
    "recre": 8500,
    "recreational</w>": 8501,
    "fmi</w>": 8502,
    "abilize</w>": 8503,
    "mexicans</w>": 8504,
    "documented</w>": 8505,
    "mercury</w>": 8506,
    "index</w>": 8507,
    "prevents</w>": 8508,
    "exempted</w>": 8509,
    "205</w>": 8510,
    "exten": 8511,
    "boost</w>": 8512,
    "islamist</w>": 8513,
    "maine</w>": 8514,
    "angry</w>": 8515,
    "churches</w>": 8516,
    "unable</w>": 8517,
    "beef</w>": 8518,
    "fleeing</w>": 8519,
    "maril": 8520,
    "weak</w>": 8521,
    "oxígeno</w>": 8522,
    "humano</w>": 8523,
    "battle": 8524,
    "ength</w>": 8525,
    "metropolitan</w>": 8526,
    "achieved</w>": 8527,
    "personally</w>": 8528,
    "camp": 8529,
    "bell</w>": 8530,
    "funeral</w>": 8531,
    "edward</w>": 8532,
    "attended</w>": 8533,
    "close": 8534,
    "closest</w>": 8535,
    "attorneys</w>": 8536,
    "negl": 8537,
    "warms</w>": 8538,
    "grams</w>": 8539,
    "generar</w>": 8540,
    "elé": 8541,
    "factcheck</w>": 8542,
    "onds</w>": 8543,
    "asi": 8544,
    "mob</w>": 8545,
    "offs</w>": 8546,
    "yemen</w>": 8547,
    "solic": 8548,
    "enrolled</w>": 8549,
    "foreclosure</w>": 8550,
    "somewhere</w>": 8551,
    "salv": 8552,
    "década</w>": 8553,
    "signatures</w>": 8554,
    "750</w>": 8555,
    "incredi": 8556,
    "ingo</w>": 8557,
    "disru": 8558,
    "bott": 8559,
    "dor": 8560,
    "kidnapping</w>": 8561,
    "dick</w>": 8562,
    "palest": 8563,
    "especially</w>": 8564,
    "innov": 8565,
    "main</w>": 8566,
    "targeted</w>": 8567,
    "suspects</w>": 8568,
    "organized</w>": 8569,
    "últimas</w>": 8570,
    "hutch": 8571,
    "hutchison</w>": 8572,
    "falta</w>": 8573,
    "matthe": 8574,
    "kagan</w>": 8575,
    "supplement</w>": 8576,
    "cow": 8577,
    "fit": 8578,
    "unpaid</w>": 8579,
    "latinos</w>": 8580,
    "loses</w>": 8581,
    "garcia</w>": 8582,
    "incarceration</w>": 8583,
    "replacement</w>": 8584,
    "develop</w>": 8585,
    "reversed</w>": 8586,
    "adopt</w>": 8587,
    "confirmó</w>": 8588,
    "controversy</w>": 8589,
    "pros": 8590,
    "vicks</w>": 8591,
    "vaporu": 8592,
    "vaporub</w>": 8593,
    "injury</w>": 8594,
    "daugherty</w>": 8595,
    "compañ": 8596,
    "180</w>": 8597,
    "factor": 8598,
    "join</w>": 8599,
    "gram": 8600,
    "dun": 8601,
    "honest</w>": 8602,
    "fit</w>": 8603,
    "atic": 8604,
    "appeals</w>": 8605,
    "unelected</w>": 8606,
    "lakh</w>": 8607,
    "transparent</w>": 8608,
    "kis": 8609,
    "mentally</w>": 8610,
    "missiles</w>": 8611,
    "voic": 8612,
    "honduras</w>": 8613,
    "indon": 8614,
    "indones": 8615,
    "fema</w>": 8616,
    "peter</w>": 8617,
    "imposed</w>": 8618,
    "codes</w>": 8619,
    "controls</w>": 8620,
    "nadie</w>": 8621,
    "tul": 8622,
    "óx": 8623,
    "fat</w>": 8624,
    "gracias</w>": 8625,
    "baby": 8626,
    "tanz": 8627,
    "otans</w>": 8628,
    "bureaucracy</w>": 8629,
    "oner": 8630,
    "dieron</w>": 8631,
    "eighth</w>": 8632,
    "ignored</w>": 8633,
    "stations</w>": 8634,
    "purge</w>": 8635,
    "condom</w>": 8636,
    "gén": 8637,
    "quickly</w>": 8638,
    "collapse</w>": 8639,
    "write</w>": 8640,
    "tra</w>": 8641,
    "irish</w>": 8642,
    "erals</w>": 8643,
    "hamas</w>": 8644,
    "custody</w>": 8645,
    "forever</w>": 8646,
    "victoria</w>": 8647,
    "cocon": 8648,
    "alzhe": 8649,
    "alzheim": 8650,
    "alzheimer</w>": 8651,
    "weekend</w>": 8652,
    "decir</w>": 8653,
    "cy": 8654,
    "usu": 8655,
    "permission</w>": 8656,
    "lay": 8657,
    "max</w>": 8658,
    "española</w>": 8659,
    "reveló</w>": 8660,
    "ratio</w>": 8661,
    "ancies</w>": 8662,
    "achs</w>": 8663,
    "lemente</w>": 8664,
    "slow": 8665,
    "tide</w>": 8666,
    "hurting</w>": 8667,
    "soviet</w>": 8668,
    "nis</w>": 8669,
    "appears</w>": 8670,
    "algunas</w>": 8671,
    "progressive</w>": 8672,
    "ulas</w>": 8673,
    "poder</w>": 8674,
    "larg": 8675,
    "marc": 8676,
    "derechos</w>": 8677,
    "outlets</w>": 8678,
    "ag</w>": 8679,
    "light": 8680,
    "quarter": 8681,
    "dry</w>": 8682,
    "rain": 8683,
    "launched</w>": 8684,
    "problema</w>": 8685,
    "tradic": 8686,
    "kasichs</w>": 8687,
    "soar</w>": 8688,
    "dirig": 8689,
    "asylum</w>": 8690,
    "responding</w>": 8691,
    "democracy</w>": 8692,
    "journ": 8693,
    "etta</w>": 8694,
    "separated</w>": 8695,
    "entering</w>": 8696,
    "cuentas</w>": 8697,
    "falsas</w>": 8698,
    "campañas</w>": 8699,
    "cifra</w>": 8700,
    "perfect": 8701,
    "gressive</w>": 8702,
    "migrantes</w>": 8703,
    "tray": 8704,
    "statistically</w>": 8705,
    "counted</w>": 8706,
    "bono</w>": 8707,
    "proyecto</w>": 8708,
    "inches</w>": 8709,
    "aún</w>": 8710,
    "positivo</w>": 8711,
    "grees</w>": 8712,
    "municipal</w>": 8713,
    "plates</w>": 8714,
    "plate</w>": 8715,
    "netfli": 8716,
    "netflix</w>": 8717,
    "footage</w>": 8718,
    "beaches</w>": 8719,
    "repaid</w>": 8720,
    "acceptance</w>": 8721,
    "foods</w>": 8722,
    "rapists</w>": 8723,
    "representation</w>": 8724,
    "intentionally</w>": 8725,
    "bancar": 8726,
    "gangs</w>": 8727,
    "educational</w>": 8728,
    "groceries</w>": 8729,
    "generates</w>": 8730,
    "deterrent</w>": 8731,
    "gené": 8732,
    "publicado</w>": 8733,
    "proceso</w>": 8734,
    "euros</w>": 8735,
    "remov": 8736,
    "bag": 8737,
    "stev": 8738,
    "formula</w>": 8739,
    "gil": 8740,
    "usage</w>": 8741,
    "17": 8742,
    "tribu": 8743,
    "ides</w>": 8744,
    "hot</w>": 8745,
    "wol": 8746,
    "expend": 8747,
    "expendit": 8748,
    "fundraiser</w>": 8749,
    "kend": 8750,
    "intervened</w>": 8751,
    "rog": 8752,
    "ilat": 8753,
    "ystal</w>": 8754,
    "flyn": 8755,
    "flynn</w>": 8756,
    "hacia</w>": 8757,
    "seized</w>": 8758,
    "hem": 8759,
    "clunkers</w>": 8760,
    "plumme": 8761,
    "bloom": 8762,
    "rap</w>": 8763,
    "criptom": 8764,
    "criptomon": 8765,
    "respal": 8766,
    "comercio</w>": 8767,
    "alleged</w>": 8768,
    "swa": 8769,
    "faces</w>": 8770,
    "houses</w>": 8771,
    "sic</w>": 8772,
    "dade</w>": 8773,
    "payday</w>": 8774,
    "stuck</w>": 8775,
    "transport</w>": 8776,
    "sellers</w>": 8777,
    "hen</w>": 8778,
    "inspections</w>": 8779,
    "consent</w>": 8780,
    "psy": 8781,
    "hammer</w>": 8782,
    "nag": 8783,
    "aclu</w>": 8784,
    "presence</w>": 8785,
    "digit</w>": 8786,
    "cancel</w>": 8787,
    "minut": 8788,
    "última</w>": 8789,
    "segunda</w>": 8790,
    "tribunal</w>": 8791,
    "pesar</w>": 8792,
    "yel": 8793,
    "certificate</w>": 8794,
    "threatens</w>": 8795,
    "capacidad</w>": 8796,
    "ciudadanos</w>": 8797,
    "coin</w>": 8798,
    "beaut": 8799,
    "beautif": 8800,
    "beautiful</w>": 8801,
    "happens</w>": 8802,
    "telec": 8803,
    "bull</w>": 8804,
    "buses</w>": 8805,
    "borrow</w>": 8806,
    "instability</w>": 8807,
    "cop</w>": 8808,
    "drast": 8809,
    "amounted</w>": 8810,
    "visas</w>": 8811,
    "effects</w>": 8812,
    "competition</w>": 8813,
    "intr": 8814,
    "dings</w>": 8815,
    "revolutionary</w>": 8816,
    "netany": 8817,
    "netanyah": 8818,
    "netanyahu</w>": 8819,
    "logan</w>": 8820,
    "efectos</w>": 8821,
    "prevented</w>": 8822,
    "pon</w>": 8823,
    "encuentr": 8824,
    "firm": 8825,
    "steadily</w>": 8826,
    "north": 8827,
    "watching</w>": 8828,
    "complic": 8829,
    "speci": 8830,
    "fraudul": 8831,
    "flow": 8832,
    "ts": 8833,
    "installed</w>": 8834,
    "guevara</w>": 8835,
    "org": 8836,
    "followed</w>": 8837,
    "realmente</w>": 8838,
    "fancy</w>": 8839,
    "countrys</w>": 8840,
    "patr": 8841,
    "gut</w>": 8842,
    "jeopardiz": 8843,
    "penned</w>": 8844,
    "regularly</w>": 8845,
    "acorn</w>": 8846,
    "rev</w>": 8847,
    "defended</w>": 8848,
    "cura</w>": 8849,
    "ata</w>": 8850,
    "volcan": 8851,
    "360</w>": 8852,
    "firefighter</w>": 8853,
    "minorities</w>": 8854,
    "occas": 8855,
    "construc": 8856,
    "alto</w>": 8857,
    "atar</w>": 8858,
    "fleet</w>": 8859,
    "justified</w>": 8860,
    "tribe</w>": 8861,
    "worry</w>": 8862,
    "arsen": 8863,
    "riesgo</w>": 8864,
    "trabajo</w>": 8865,
    "jó": 8866,
    "bble</w>": 8867,
    "depot</w>": 8868,
    "perpetr": 8869,
    "warded</w>": 8870,
    "snowden</w>": 8871,
    "allegiance</w>": 8872,
    "twin</w>": 8873,
    "ideolog": 8874,
    "convirti": 8875,
    "trouble</w>": 8876,
    "declining</w>": 8877,
    "1979</w>": 8878,
    "laboratorio</w>": 8879,
    "bushes</w>": 8880,
    "presch": 8881,
    "looked</w>": 8882,
    "latter</w>": 8883,
    "igu": 8884,
    "sir": 8885,
    "genera</w>": 8886,
    "cheese</w>": 8887,
    "refus": 8888,
    "refusal</w>": 8889,
    "too": 8890,
    "tooth": 8891,
    "wanting</w>": 8892,
    "domingo</w>": 8893,
    "olas</w>": 8894,
    "cuar": 8895,
    "inian</w>": 8896,
    "producción</w>": 8897,
    "elly": 8898,
    "eventually</w>": 8899,
    "zone</w>": 8900,
    "olsen</w>": 8901,
    "boarding</w>": 8902,
    "casual": 8903,
    "repeated</w>": 8904,
    "colap": 8905,
    "decisión</w>": 8906,
    "waivers</w>": 8907,
    "load</w>": 8908,
    "denying</w>": 8909,
    "acknowled": 8910,
    "beaten</w>": 8911,
    "dodd</w>": 8912,
    "aig</w>": 8913,
    "tarp</w>": 8914,
    "clarke</w>": 8915,
    "generous</w>": 8916,
    "surger": 8917,
    "evol": 8918,
    "shad": 8919,
    "kens</w>": 8920,
    "irá</w>": 8921,
    "oxford</w>": 8922,
    "monum": 8923,
    "dob": 8924,
    "cancell": 8925,
    "climático</w>": 8926,
    "anti": 8927,
    "resulting</w>": 8928,
    "dil": 8929,
    "monitor": 8930,
    "export</w>": 8931,
    "grav": 8932,
    "blanc": 8933,
    "vermont</w>": 8934,
    "finish</w>": 8935,
    "hunters</w>": 8936,
    "artist</w>": 8937,
    "confi": 8938,
    "satellite</w>": 8939,
    "carol</w>": 8940,
    "ucional</w>": 8941,
    "yendo</w>": 8942,
    "mortalidad</w>": 8943,
    "mande": 8944,
    "alim": 8945,
    "ea": 8946,
    "answ": 8947,
    "aching</w>": 8948,
    "prohibited</w>": 8949,
    "champion</w>": 8950,
    "vatic": 8951,
    "jerseys</w>": 8952,
    "tues": 8953,
    "tuesday</w>": 8954,
    "bicycl": 8955,
    "generations</w>": 8956,
    "concili": 8957,
    "insist": 8958,
    "dia": 8959,
    "filibuster</w>": 8960,
    "shortage</w>": 8961,
    "ono</w>": 8962,
    "cerr": 8963,
    "names</w>": 8964,
    "diane</w>": 8965,
    "verdad</w>": 8966,
    "wayne</w>": 8967,
    "menstr": 8968,
    "menstrual</w>": 8969,
    "precinc": 8970,
    "romne": 8971,
    "romneycare</w>": 8972,
    "exual</w>": 8973,
    "deemed</w>": 8974,
    "aje</w>": 8975,
    "conocer</w>": 8976,
    "dispar": 8977,
    "slashed</w>": 8978,
    "rebuild</w>": 8979,
    "administración</w>": 8980,
    "engage</w>": 8981,
    "zer": 8982,
    "however</w>": 8983,
    "enfrent": 8984,
    "robber": 8985,
    "eliminates</w>": 8986,
    "tank</w>": 8987,
    "skipped</w>": 8988,
    "recruiting</w>": 8989,
    "multim": 8990,
    "consult": 8991,
    "highly</w>": 8992,
    "finding</w>": 8993,
    "jur": 8994,
    "ills</w>": 8995,
    "outspent</w>": 8996,
    "esville</w>": 8997,
    "hunt</w>": 8998,
    "calent": 8999,
    "satisf": 9000,
    "suing</w>": 9001,
    "sanitarias</w>": 9002,
    "initially</w>": 9003,
    "lynch</w>": 9004,
    "goldman</w>": 9005,
    "sachs</w>": 9006,
    "notor": 9007,
    "notorious</w>": 9008,
    "invent": 9009,
    "empe": 9010,
    "metros</w>": 9011,
    "wed</w>": 9012,
    "gent</w>": 9013,
    "shots</w>": 9014,
    "brote</w>": 9015,
    "slide</w>": 9016,
    "branch</w>": 9017,
    "hemos</w>": 9018,
    "application</w>": 9019,
    "endow": 9020,
    "240</w>": 9021,
    "ral</w>": 9022,
    "paperwork</w>": 9023,
    "paycheck</w>": 9024,
    "publicó</w>": 9025,
    "ze": 9026,
    "complain": 9027,
    "aly</w>": 9028,
    "shield</w>": 9029,
    "largely</w>": 9030,
    "reim": 9031,
    "reimbur": 9032,
    "qaeda</w>": 9033,
    "ánico</w>": 9034,
    "ualdad</w>": 9035,
    "signing</w>": 9036,
    "mograms</w>": 9037,
    "historically</w>": 9038,
    "ambul": 9039,
    "montero</w>": 9040,
    "centros</w>": 9041,
    "él": 9042,
    "debor": 9043,
    "deborah</w>": 9044,
    "surrender</w>": 9045,
    "stuff</w>": 9046,
    "busiest</w>": 9047,
    "meth</w>": 9048,
    "iner</w>": 9049,
    "kem": 9050,
    "versión</w>": 9051,
    "alistas</w>": 9052,
    "usando</w>": 9053,
    "steen</w>": 9054,
    "bbed</w>": 9055,
    "obrador</w>": 9056,
    "posición</w>": 9057,
    "lid": 9058,
    "alligator</w>": 9059,
    "proves</w>": 9060,
    "shape</w>": 9061,
    "egypt</w>": 9062,
    "hat": 9063,
    "ruling</w>": 9064,
    "apenas</w>": 9065,
    "wins</w>": 9066,
    "drill</w>": 9067,
    "commander</w>": 9068,
    "expressed</w>": 9069,
    "charging</w>": 9070,
    "transactions</w>": 9071,
    "impacto</w>": 9072,
    "opposing</w>": 9073,
    "específ": 9074,
    "fallecidos</w>": 9075,
    "conferencia</w>": 9076,
    "hill</w>": 9077,
    "baj": 9078,
    "surrounding</w>": 9079,
    "cooper</w>": 9080,
    "kicking</w>": 9081,
    "prep</w>": 9082,
    "indictment</w>": 9083,
    "glass</w>": 9084,
    "mill</w>": 9085,
    "citys</w>": 9086,
    "amtr": 9087,
    "amtrak</w>": 9088,
    "cumpl": 9089,
    "mobil</w>": 9090,
    "till": 9091,
    "investigate</w>": 9092,
    "cemetery</w>": 9093,
    "johnny</w>": 9094,
    "ucía</w>": 9095,
    "precios</w>": 9096,
    "1920</w>": 9097,
    "clín": 9098,
    "administrative</w>": 9099,
    "knif": 9100,
    "naked</w>": 9101,
    "scotland</w>": 9102,
    "tures</w>": 9103,
    "buffalo</w>": 9104,
    "shops</w>": 9105,
    "jews</w>": 9106,
    "montana</w>": 9107,
    "famili": 9108,
    "read": 9109,
    "grand</w>": 9110,
    "gardner</w>": 9111,
    "crí": 9112,
    "kirk</w>": 9113,
    "bearing</w>": 9114,
    "henry</w>": 9115,
    "tuvo</w>": 9116,
    "modific": 9117,
    "mueller</w>": 9118,
    "removal</w>": 9119,
    "bagh": 9120,
    "firms</w>": 9121,
    "pack</w>": 9122,
    "guinta</w>": 9123,
    "muham": 9124,
    "chip</w>": 9125,
    "wait": 9126,
    "weigh": 9127,
    "succeed</w>": 9128,
    "author</w>": 9129,
    "decreases</w>": 9130,
    "dean</w>": 9131,
    "iani</w>": 9132,
    "morator": 9133,
    "hopeful</w>": 9134,
    "áne": 9135,
    "trimest": 9136,
    "mers</w>": 9137,
    "plummeted</w>": 9138,
    "bloomberg</w>": 9139,
    "belon": 9140,
    "rapes</w>": 9141,
    "cook</w>": 9142,
    "eless</w>": 9143,
    "jay</w>": 9144,
    "lanz": 9145,
    "butter</w>": 9146,
    "lung</w>": 9147,
    "imported</w>": 9148,
    "ging": 9149,
    "gingrey</w>": 9150,
    "consume</w>": 9151,
    "uel</w>": 9152,
    "indicating</w>": 9153,
    "philip": 9154,
    "creates</w>": 9155,
    "440</w>": 9156,
    "paciente</w>": 9157,
    "etc</w>": 9158,
    "ás": 9159,
    "powers</w>": 9160,
    "kuster</w>": 9161,
    "costco</w>": 9162,
    "selective</w>": 9163,
    "onen": 9164,
    "accurate</w>": 9165,
    "nazis</w>": 9166,
    "harbor</w>": 9167,
    "promo": 9168,
    "von</w>": 9169,
    "rallies</w>": 9170,
    "shale</w>": 9171,
    "meme</w>": 9172,
    "sheets</w>": 9173,
    "sno": 9174,
    "angered</w>": 9175,
    "links</w>": 9176,
    "ilia</w>": 9177,
    "crec": 9178,
    "distribution</w>": 9179,
    "escal": 9180,
    "vagina</w>": 9181,
    "joint</w>": 9182,
    "venture</w>": 9183,
    "crear</w>": 9184,
    "incluso</w>": 9185,
    "evers</w>": 9186,
    "keith</w>": 9187,
    "logo</w>": 9188,
    "entales</w>": 9189,
    "oney</w>": 9190,
    "identity</w>": 9191,
    "utiliz": 9192,
    "pi</w>": 9193,
    "originated</w>": 9194,
    "911</w>": 9195,
    "cobb</w>": 9196,
    "neither</w>": 9197,
    "solely</w>": 9198,
    "ineff": 9199,
    "draft</w>": 9200,
    "apprehensions</w>": 9201,
[...]
